import io
import torch
import torch.nn as nn
import numpy as np
import base64
from fastapi import FastAPI, UploadFile, File, HTTPException, status

app = FastAPI(title="MRNet Knee Pathology Diagnosis API")

# Paste your giant string block from weights_string.txt inside the quotes below:
WEIGHTS_BASE64 = "UEsDBAAACAgAAAAAAAAAAAAAAAAAAAAAAAAbAAcAZ2F0ZWtlZXBlcl93ZWlnaHRzL2RhdGEucGtsRkIDAFpaWoACY2NvbGxlY3Rpb25zCk9yZGVyZWREaWN0CnEAKVJxAShYEQAAAGZlYXR1cmVzLjAud2VpZ2h0cQJjdG9yY2guX3V0aWxzCl9yZWJ1aWxkX3RlbnNvcl92MgpxAygoWAcAAABzdG9yYWdlcQRjdG9yY2gKRmxvYXRTdG9yYWdlCnEFWAEAAAAwcQZYAwAAAGNwdXEHS0h0cQhRSwAoSwhLAUsDSwN0cQkoSwlLCUsDSwF0cQqJaAApUnELdHEMUnENWA8AAABmZWF0dXJlcy4wLmJpYXNxDmgDKChoBGgFWAEAAAAxcQ9oB0sIdHEQUUsASwiFcRFLAYVxEoloAClScRN0cRRScRVYEQAAAGZlYXR1cmVzLjMud2VpZ2h0cRZoAygoaARoBVgBAAAAMnEXaAdNgAR0cRhRSwAoSxBLCEsDSwN0cRkoS0hLCUsDSwF0cRqJaAApUnEbdHEcUnEdWA8AAABmZWF0dXJlcy4zLmJpYXNxHmgDKChoBGgFWAEAAAAzcR9oB0sQdHEgUUsASxCFcSFLAYVxIoloAClScSN0cSRScSVYEQAAAGZlYXR1cmVzLjYud2VpZ2h0cSZoAygoaARoBVgBAAAANHEnaAdNABJ0cShRSwAoSyBLEEsDSwN0cSkoS5BLCUsDSwF0cSqJaAApUnErdHEsUnEtWA8AAABmZWF0dXJlcy42LmJpYXNxLmgDKChoBGgFWAEAAAA1cS9oB0sgdHEwUUsASyCFcTFLAYVxMoloAClScTN0cTRScTVYEwAAAGNsYXNzaWZpZXIuMC53ZWlnaHRxNmgDKChoBGgFWAEAAAA2cTdoB00AQHRxOFFLAEsgTQAChnE5TQACSwGGcTqJaAApUnE7dHE8UnE9WBEAAABjbGFzc2lmaWVyLjAuYmlhc3E+aAMoKGgEaAVYAQAAADdxP2gHSyB0cUBRSwBLIIVxQUsBhXFCiWgAKVJxQ3RxRFJxRVgTAAAAY2xhc3NpZmllci4yLndlaWdodHFGaAMoKGgEaAVYAQAAADhxR2gHS2B0cUhRSwBLA0sghnFJSyBLAYZxSoloAClScUt0cUxScU1YEQAAAGNsYXNzaWZpZXIuMi5iaWFzcU5oAygoaARoBVgBAAAAOXFPaAdLA3RxUFFLAEsDhXFRSwGFcVKJaAApUnFTdHFUUnFVdX1xVlgJAAAAX21ldGFkYXRhcVdoAClScVgoWAAAAABxWX1xWlgHAAAAdmVyc2lvbnFbSwFzWAgAAABmZWF0dXJlc3FcfXFdaFtLAXNYCgAAAGZlYXR1cmVzLjBxXn1xX2hbSwFzWAoAAABmZWF0dXJlcy4xcWB9cWFoW0sBc1gKAAAAZmVhdHVyZXMuMnFifXFjaFtLAXNYCgAAAGZlYXR1cmVzLjNxZH1xZWhbSwFzWAoAAABmZWF0dXJlcy40cWZ9cWdoW0sBc1gKAAAAZmVhdHVyZXMuNXFofXFpaFtLAXNYCgAAAGZlYXR1cmVzLjZxan1xa2hbSwFzWAoAAABmZWF0dXJlcy43cWx9cW1oW0sBc1gKAAAAZmVhdHVyZXMuOHFufXFvaFtLAXNYCgAAAGNsYXNzaWZpZXJxcH1xcWhbSwFzWAwAAABjbGFzc2lmaWVyLjBxcn1xc2hbSwFzWAwAAABjbGFzc2lmaWVyLjFxdH1xdWhbSwFzWAwAAABjbGFzc2lmaWVyLjJxdn1xd2hbSwFzdXNiLlBLBwhGyigMFgUAABYFAABQSwMEAAAICAAAAAAAAAAAAAAAAAAAAAAAACIAGgBnYXRla2VlcGVyX3dlaWdodHMvLmZvcm1hdF92ZXJzaW9uRkIWAFpaWlpaWlpaWlpaWlpaWlpaWlpaWloxUEsHCLfv3IMBAAAAAQAAAFBLAwQAAAgIAAAAAAAAAAAAAAAAAAAAAAAAJQAsAGdhdGVrZWVwZXJfd2VpZ2h0cy8uc3RvcmFnZV9hbGlnbm1lbnRGQigAWlpaWlpaWlpaWlpaWlpaWlpaWlpaWlpaWlpaWlpaWlpaWlpaWlpaWjY0UEsHCD93cekCAAAAAgAAAFBLAwQAAAgIAAAAAAAAAAAAAAAAAAAAAAAAHAA0AGdhdGVrZWVwZXJfd2VpZ2h0cy9ieXRlb3JkZXJGQjAAWlpaWlpaWlpaWlpaWlpaWlpaWlpaWlpaWlpaWlpaWlpaWlpaWlpaWlpaWlpaWlpabGl0dGxlUEsHCIU94xkGAAAABgAAAFBLAwQAAAgIAAAAAAAAAAAAAAAAAAAAAAAAGQAzAGdhdGVrZWVwZXJfd2VpZ2h0cy9kYXRhLzBGQi8AWlpaWlpaWlpaWlpaWlpaWlpaWlpaWlpaWlpaWlpaWlpaWlpaWlpaWlpaWlpaWlpSYnw+d7phvcHcsb12gD4+tQjvPV7xIz6hOWq+8d8+PdBvi75AF6Q+JuAPvsIABz7/xm89IiEsPoY9gb254689cgaLvqmYcD0Ec788OG4lvps4Db2jjl2+0XuRPsxYJL5qmZ0+vvbOPfZmJj1mJCM9hE2xvNHYjT4TOIK8SWh1vr6whL71zLq98gAAvvHqDD6keqs8KPaRvi0EsjzgX8I3h3hmPnZItD11OpK+LyEoPuqxBb7JD1o+kWvFvaP8jr6PU5++bDgLPRQv2D36Ugc+tu9WPt8GMz5NJU0+GcaKPRX4lT6VB4u+Wg6ZPnYoc743ods9wgrDPGRJNT65LpY+siUQvnsPb75hOoa8p0BXvkOTJ7w9I4W+YADBPbSe/T1QSwcIO9c7VSABAAAgAQAAUEsDBAAACAgAAAAAAAAAAAAAAAAAAAAAAAAZABkAZ2F0ZWtlZXBlcl93ZWlnaHRzL2RhdGEvMUZCFQBaWlpaWlpaWlpaWlpaWlpaWlpaWlrGzK0+XWUmPeirhbyyGkq+rUNtPvNXCb6x8g++IlCUvFBLBwhFs8xiIAAAACAAAABQSwMEAAAICAAAAAAAAAAAAAAAAAAAAAAAABkAGQBnYXRla2VlcGVyX3dlaWdodHMvZGF0YS8yRkIVAFpaWlpaWlpaWlpaWlpaWlpaWlpaWs3hjj2Af/W99jbSvfNgyr1i29k8jDSyvImbXr18to09Uk5RvTo6iD3E8Ny9aD8ovXJKm72P0ju9EGi1vXYSib0xFE+87RLzPGbT7LtgzNe1uuInvXRwlb3Gl4E982CxvJdwWrwQQgm+g2uXPKUIyL1hvE69vyaXuzZtf70PApy8li8JvkVOnT3OiHm8oH1LPYY4F72Vwjm9V5wWPaccXL25UOQ8Ux3NvV8CwT0Vbqs9Lb37vJXXI72wn5+9B4mKvEMj/7xkxr895BcDvs2SpD0WgIS8km0ePGzYvj3ecMY9xLrUvYF7kryGWaq9XfkmPSpQqj2GGgC+sBEnvaBpB77Mvue9KFM8PUK0mr2DUxE9Pr56vRR4zbwk7RM9k8AfvRQZiT0F7ie9du9TvSwP/LxfW709+mQwvW1Cwj16kGG95jesvdKGpz2Tp6y8Od6hPD/byz3Rgrc8m2SovYkeSj0Qz9I82dfbvbQ4Cb2IjpI8mJGLvARh0z38COe97osCvllgGz0uLMw9im8Pup5Esr2QI9W9jg+KPWiHv70FWmm9ERtRPedikDz8q2i9P3XnO9MrSLxfZJy9bZdgvVLOnL1TNFu9KrVaPbRRkz3j3NG94kXdvXvST73+pr89ByicPVMjRbxZXgQ9EjCAPbOlPT1P7yM9M0MLPap0ob0IDRc9VNwEvr9/8zsN0Eu8e5mCvecOiT0Tnk49AETLu9ds6r1Fs0q9OErvvUQotr28CJu9ZZO0PAISmj0mgWo9jrg1vXUFM71rCni9vOmPvTIDeL2aG+G9CK6ivYHXib0kZfo7stC4PcoVf739HQm+zMa/vZIEL7wxlt69KnMAPCrskL1xa5k9+dbfvZaO1b1e0TC99SCjvWhnAb3xZhQ9SIDgvVkn9b1GYrc9n14vvai7tL0MVXA9YFgAvk6Jnj3AJqI91lZ6PcEunTzO5oY9q18xPZHCjD36QkS9ipygPTE96jx97J+9d8N9PF/vQL3D51a71juZPIQ3Tb22KYS9gTxPvM4FzL3eqEa6BFwYPSc/pL2yNjG9tY1gvaeB6r1eBWq9Fct/vd8OlTy7oFK78GW3vQ6bBD67vUm9N4fQvQBvbjwx1+O8OOvMvBm7Zjzjm6K90LT1veTRVb0jy6a8ioEIPaog/bu4wHk8dji2vXZ067xMbsa9sKaVvZnlJL0L5xY9pyQzPYRcTD25lSO9e7aaPZ5wzzxkCXO9LmR8Pcl5cb1cKoQ9vrYKvfifFb1ay2U94G7HvShD1L3PiUe8C7UTPXy46b2rGp48+koBvqb4pj1w8uO8LlMQvmqbBr5JY008P08ZvRZkuT3GhAU9bclrPd/CjL0zhXS9lx9bPcgGtj1m/qM9/6huu2d57bxbsKg90vaqPYPvlD02IjC9g/2xvTyh5L3YPaC9lw3RvEL7CD0WpGK9gj48PdGKMD1ETwm+E9KUvQRky71G6xs8BvY+PVR0+L181nK9Yz44PO4zJT3Dra08lU7rPIROKb2pA+s8DdB3O+LLAbxRkoG9ieC3PaVXT70OCiI9tQGVPcb/Wr0KCxc99PMVvgFg5L1rAIo9GxjGvcYSWT2PzCg9tosKvnICnr0U9Rq9nsKGvTs2CL68sAe+A2e+vDRSzzzaBrW9Uk26vfkfc7z0kHC8KkE6PUSebDtNhnO9f+n9vEEmWD0WLpM9raeOPA8d+byPTpy9ivjovdx9g73A96K98XNqvEvNoj1VSsm8V+bHPRb15r1kVQm+y1rCvRKS5L2Muna8X+ucPROV3r1HUzS9c9aDPSyYjj2HJYi8eOKWvI4GD77+t5y9svE4PSTum70Iae69d3Zqvct7Cj19w587t74+uwnt6bz+QvG9ey+UPSPOmDwILgW+E67kvcKhnD2BLC49jTE8vVFUir2JB/m9X4WxvZdRkzwi6XC8Y0xEvVaCAT2LdLE9MZPSve4Pgr03J1m9I478vUmIX73FeIm8oJKrPWftWL3vT3I9LSYXvZff0zwf4oS9WcJUveIhrLokZMm7S8P4PJEeybyI5Qy9D0WWvS+A7L1vZgG+fQOVvS6TiL1uaLw9jI7ivOhCwL32ULk9frlUPb99lb2Bu8Y9gW5yPUfihr1OT4e9UCoHvoIYGzwtooq9s6nPPY4LyrxCh9A8Q+dlvR4/pz1LPia9cgFTPJ8UH71T6Mo9MmmPPTlo8DudCNa9WTSRvXOl6b1FTPc8X8JaPbTfyLv+w849jdUDvuv2RrydyS68rlrbPbNqn73zgOC93JbSvVh5sL3YyoG8Jk1MPcfH27xuUQa+TUitu3vs172jfSU9Z/HpvBxBmb2V5yS9jNIXu6/v0b042Pw8HEkGPQPT070+TUy9eYervHR3or3DwTm9Hh70u/Oc4ztsJzi9pL2WPQmL1r0nj+c8J3mWPf+SmryGHge+p65GPEx+lz25vgY9K6JePeErgT2dmgW+/zxEvQa5cL1D0qC93PP+vcX1+TzhnGI9OyyAvbLJVrwhsLc9lcmbPX9ATDzhkLy7UuW6Otck9zyNvpU9E/UDvS8ZHj3rq9W9PJ0mvAdKtzzKQLM9jxRUPTc5pL0WIZ49JpDzvc4Tq706q109AZSHPauFHTsSjf29KowivZ8QCL5Blci9bytFPRz5Lr3a0Ig9UdyWPTOBvb1HlhC+XVcBPUR77L1NPFW9w/lEvX1LpD26Yhy86zORPbjJeTxc8/i9TC+bPds9dLsU82+9BF6DvD1ISjtePJa9/jkfPdeeD7uvlMK9t43xvH5hjr3RDnc93qNru+XYRz3q27o9MvVOPVl2473kZbE90qTsO4rs2r3dlvW9sbWyvM+plT30d1G9jHHovflnlj2AlBa9D1ahva4dM72nxq49JDyEvf8RBr3ZWtg9KiYrvQzTQb3MtP67pvYBPYetMT1rNbe9Or2QPGUa173dmAu9veSavbfR4L1+NJu9kpqQvbUhc73SlEo9rVDBvb8K2Lz15xu9GvK6veUxu7xO6pI9wDuRPUUP9r3u9be9nz88vWM80D2/W+S92cOlPXLyxz11APe9ELPSvNgDurygodK9Zkc2PEGh871coqC86NzBvXlmmT2Smr28VU7DvCfx8rxK01m8KrKYvZVJv71d/Cc9GACIPSB6ADzXLcu9SySRvbw0RT3ybdu7UIzgu8Q7kDwtZQc8qSY6PRydi7xrmbY9RAxzPQOp1L3Vc1C9ASzgvOtUuz0tHFc8KrUivZ0RDL21cOA9So/pvBG+8r1eqI472EbivQ8AErwZjYw9jpO0vS1Hjb0nKIu9ZvgRvVVUgj3DJQi+88zlva5YtT1xaxw9cFsCvp9aBL5VVsO9hOGFvZibrr2a7aM9XHG3PSFRnb0MrGm9m3nfPL1Aiz00Xwq+w1wrvAKWsbzYfum9ODS/vcyIij1Loym8/lVBvXantr2nZs09g6ivvXLOtb1RzaW9WAyfvL3njz0WK5K6hnjiu6Pjtzx2ggG+dENTvdArjb1XVEC9mimJO+0iVb2zuSu9wJXQPExpTbysVYw93ZliO7mGGD0Fj6s9Ldy2vVDvw72Qx8A8pQZCPPTUtbsQWrS9un3+veyk1r17pWc9qcKSvL60wj3XRLm9Sc6CPb3We73xi3u9bbOaO4RiNT0kP7u9jQOaPWeIyj1p+Ve9ovzLvfr4/b15/tE8HUhuvCuWcb3ibBk9adkAvrLTzD0PPf28E3wXPby3KT1MGcs9WkWWPVJFpL3WVNm9Z3oHvhYQnL3ErsS9sJ6nPXm8yD3p/zi9Mk+bPQZE3TzkgJE8BIIDvgHSYb3dV4k7k5jxvZ/xWb15+Jc9nxDLPS63/b2Kf0I9Tz3TPV6TYb2+Gg49HWbwPaLsAz6f8CI93p2SPWRJ1DzWP229C8bFvVW9nj1iD4q8qeypvQtEiz0M8pi9GuKyPLrY2j05bIQ8zUervbUt3DxS9tc8Wa6gPaw12bwj2M89G57fPXBS5T2eSIM9BQaVvRoIpr0C1IM97Y+/vT9I/z0OQA69msAUPDE+ur0sV5g9dmhDPdnOsTyjbWC9d4JnvIv6ELxGYJK9F9RRPeBMer3yYaq6mHDOvbXOpD0uUEY9y77KPCoCoLvSbc49R4nCPN9pvz3I3WE9lJ4qvOIJj7sy2tk9U+oIPmB/l71v6Lq9M8wlvPAlp7wen8C9dRSXvEQ5+rxEDqC8r3RQPf2xqD2Jgco9PIEQu6mnX73HWIk9omdBvV0u5b0kCKQ9OaCjPb2bxDujehM9y3suPDp7/731kPe9bvHxPAeCBL4PQKI75HPqvWANcD2jBq69fJu5PX/y+jzUIBk9ZMTXvR5sjT0/EXe9XYLvveMtHL1tkLi8nDwEvqSzX7wgn7m9v8uxvc0kp70UR7+9M9x5Pd9owb34IoU92SPtPIVhND1ox5I9gr+lPFYEyj3LhXy9LLmkPSsx+TwD8/W9eCbnvc2Onz3NYbG9jJLuvWaMI72cyvY84wqkPRxAgb0IiZU9gGz4vSb1sz20Bmo9j+DBvBFpzT2Ae/S9Hsm9PPAP4L3yl1W87UJEPT2WHLxSaU29p8/pvbLqQD2CB6086a8yPQ4NAz098769yBy7PXAmJL3CSpY9nZuNPVnUsj2NB0O9UlKdPJxUcT0MB9i8lLamvVG2RjwM5Y09PM93vTac1L3rXaY9TXRpvWaclT1uhLK9GebSvNUrvTz8Pc8809ADvZmkwr3Bfqw8g2H8vFZz4r3W3BI9Q8efPbFnu72psci95fJmvdl5uL1Un7g9EYMdvcKKrD0Nx349haNjPQ45F7yQB5y9zA+xPcEVhr3sA9E9EIn4vB1ZAr5lxbO9ItHPvXme4jxSsQO+kmp+PQkaNL3T67+96sHXPaymND06K5287fzOvTKSGL19+aK7FUKePXSoBL6sYtq9owSwPayUMj2SAEA9G77TvR+U2j398eC9GvjovaM9wz1hhII9EU6DPfxO1D325Nc8JNdZvaqbiTtlwLu9IENaPeUxnD1Ja589/VSpvbAqo72OJKk9J8q/vWJzur1/iIE9nrZLvX1ox73TX4E91nn4vZEge7wQvPS9zr4WPX7kzL3cZnq9Ank+PTdT9jw31HO9yVqXPIQ02L3WbYW9yufevNSqRz1zPki9kz7avdDiOr3umoU8+OsCvkHOrrxIj8y9cTrdvKw8xz3diWi9/LqOvSoORL1DP8M9o2EGvENvJLtz4ya9cF3ZPQhAsbyrSfm9OxnHPeYvED1+I4S92JWuPSYQqTwzEQK+0oOVPSWswb2DHds8NFIKPM57BTx6W5u8KhhJvVWt9L2yDAC92Ef8vPiczj0oTtK9GKhFPRCbk71KEqS8ooHwvcSKor0VRx+9+cjJvbps172tARS9WUN2vV3Dyr1YJQG+4pavO3mbir1OWr29k4JVveGRq723f1+9zAmNPWAigb2S2Iy68/WBvacQvry63uC93p1wvbGGDL4xFBG8umgevbnF0Twp9p49oA2PPZ9+lbxk5pM9WAalPfO6kT2/Yog829GyvZqxgz3klmQ99ou+PEGDj71rH529XbWFPSxBkL1Ls3g9Z4eXPcEg4L3rwfW9Pf8qPM1rXz1qPTM9jFzDPYxR/L12JJA9JU6rPO8+m70y35a9QK+GPJfbu7wK+gK+tWoCvqmDA743xJ89OWS9vbB+gr1PfXM9UcXWveh4Db0Kk1I9DcmpPTUt+Lta0Cs9hqu1vVRmJD13hNG9xafRPNJuID3+b0e9zmjiPHUIVz3j/Fa9vfK/PILnvz1bGJg9DCx4vNfIB75FlRk8xcn6vAXe4ryqT6U94XUIvpxsbTx6HQo8e4bOveOjVj2b1828obHcvdM8f71Z2Gm9x4fjvX8BSr3cRrK9r6lMPATS2r1hXMW9EzcMvkItrL0igJq9TDvlvbXOvbybQGy9rDebvanWYT1tjMe80ABxvBwyor35ZKk9rcHjvOiSgD3BObc9wBHXPPMdrT0Mv1K883gHvk7PxD0BtSC8XETEvaq6Cz2C9o+9aSfevaVmnj1Zxq49CxtlPStKtL0AYAK+QqJdvJk+gL1oYlC8smS0vU9n4LzALv29vbUxvUFhxT0dKho9vKC4PDO7vL2Y2mU9kV+5Paw/hz2rSmg87nPPvbRN1r2wpaS796bru1BLBwhOukbNABIAAAASAABQSwMEAAAICAAAAAAAAAAAAAAAAAAAAAAAABkAOQBnYXRla2VlcGVyX3dlaWdodHMvZGF0YS8zRkI1AFpaWlpaWlpaWlpaWlpaWlpaWlpaWlpaWlpaWlpaWlpaWlpaWlpaWlpaWlpaWlpaWlpaWlpa4uYBPfj9jLycRbG9jw3eveJ1z70tNlI93rj3vGch/TwhIku9yZ+dvexwnD395/u9vIQDvhK9lD1Tsyc9ZhDFPVBLBwhlaKwtQAAAAEAAAABQSwMEAAAICAAAAAAAAAAAAAAAAAAAAAAAABkAOQBnYXRla2VlcGVyX3dlaWdodHMvZGF0YS80RkI1AFpaWlpaWlpaWlpaWlpaWlpaWlpaWlpaWlpaWlpaWlpaWlpaWlpaWlpaWlpaWlpaWlpaWlpaynqKPAPu0L06PhK9BYFAux5ti7mLLso8tdZRO5Ln+Dz1I9Q8WVlLPRAVJj3rOZG9xqZMvdqzCr2/azs9H3H1PPIb5rzncrq9ICUqPSsMbbwVdGc95cpTPfhpi733Oug8F5JMPeC5vj1z/449qj+HvXCutb1ExKq92fJ+vVr/QD0ob7y9SslDPHDhsTrzB6y96FwnvVybpzyhus47Ve9NvSMPMj3oLly67J34vD0fiD1nMVI7RrNuvU7H17o62Xg8zu+gvXOrFTsFPWy9PRaJPDEci70OxJ68WwwiPIlfkT3IR3W9hu2MvV8ndrwfU5Q9YfBaPAy1fTu+Mm69DcWJvRVucL2BAze6VXXLvc8FST0B4DA91oqxPIzMmr2znmO9RFmKPdiJqLw1fba92juGu24HGLpAz0+9+GW+vXxiH70ZXDQ99OLIu5pm1bwC0+Q7L/yNuzoiWb3o7YU8f4u1PCJmu71HFvU8qD8lvbommr20/II9QwDmvTB8gT3ncmE8OgKEveqmRz0GSMm6uSpevSVLbL31CNK9dePlPJGHhDywlMM8dJt4vTBZ7DyFvHw87aGFvDOXIT3LtXI8kFLxPAK7cb3BaSK9xQmbvb4gUL22Nbe9iLv9vHV9gD3y1TQ9gluHvUHDwb0C0XW91xODOwwmIr0AnNY88WSqvKdKiT2PiHi90qXdvahbIbxLw5i96rlxvar4nzziRpy9SL6wvbH/R71AOZM8WreUvdeqWT1P+Ro98aC+vHTKzb2gG1q7t9gpPTQF9jxf05+9FWE1vZ1gs7xYsLA82r4cPats9zsjGQ49HpRiPauS1Lw6Cm+94JB2OpRGjrxmFGq9CwvRvbosaD08+xs8Cg3Ku0lmiz3WoIW9xrcgvcx1iL28NNc8HaTFPRPogrw+mIk9UCUyPXcIX730+F89uH3rvN7ptb3UZmC8TGfFPLW6aD2leZC7SKDtOwL+pT2iw4m8iblzvDmu/LxKOrm9iFwwPYP/Oju9M4U8Rn+jvYyBBj1Eu7K9C0WEvfnIij0+nYS9+28fvN5W9jxGTam9Hg2JvYEmYr2dOHo8+yIHPNOw8jwXc+W8lzM9PVxZs70gEi49hLQmPXiqYr1RPYo94ltTvUx+pr1QuVA6T9OguvtgSbsgNji8KeyNvWsIxjzp1049azBNvUq0c7w8OWU87Df7PGeP9Lwp42u9ZqjsOxigf72piIE7evV5O/nTOLziwx288FiRPMSWQ72CQZK92BaVvaTqU70d+Om8K/E0PKsuAL0DadG8yEVMPVFqxr3uEa29F1DqvLTetL35wgw9kEKavT98PbwOJJy99M7Aug7UiztkmU69Vt/0vKHN6LwG+AS9I7XsO16CxL0DeDg9m6YavZzPAz2FTba9VOZRvaj6gL2puH89SviaPN8ffT1qgn49B2D6vIrDLr3PBRM9hUGBPWsMMz3lmqQ8btiuPGDQfz1qH6W9ITliPPC00r1Ek7a9hTEqvbANmbt9qrq9S4WguhgAMTyxQ+O7KoIcPfxFpDxIB1G9rm+8vbF7g70bybu8+/WAvTi/Ur0SZC68yYxLPL89XD3MUYY8/DKkvaRT7Dw7kQq87tuKvaR1QL08owm9vsMaPBQilD2ygnQ7mwTnu/1zg72F7cA9NjG6u3SF3Tw41J88d/CpPBgsSb0YwZe90ABMPczNr71ycJE9JjmRvSJe4jwa9xW9tM2hvUxSij3bKPM8RcNOvAFrAD0iO6A9DQ3kvAVqvzivIHS93qBmvIkNJryq1Qw7oyQFPRHxiTwYfya8tlL3vFITVb2rlUW8B3tbPQ88Qr2E3os9+TtQPWo9Tb0TfvG8P41FPaKi9LycCTO96HqdvI43rr34E0M5yY2BvV6vdb0Rhla9QAzcPYkhhzxI6Ww9vPCguAA4ab2PH848uJFrPYX9Dj2V9yE9XyVGu8A7gz18Rqe8OuiePAyDBTyr7Ak9Ovh7vJnS6byWZaK6zrOKPepbzby3plQ9bT8SPNEElb2fIAi9eF+PPC7lpD3qQoG6KHSAvU4SqTv9rJg9USlKvSN5WL0iKH89bYdpvaNanjyYY3y9lGYQPe8kEj19K7g94eF4PerTFz3P7Yg9AhObvIe8lj0ux9g89RNEPexh/zsvvSo98/35u0cjir3CCC69bVr2PcWehr0JjpE8L3UBvTtPIb2llpQ9bkUoPa3SDL0Z5NE84GGbPJ0mVb0TmWq9ALOrPa5wlL1dYJm9UCpAvey7kj1GoCC9a1lyPf1RjLxP9Ne8Xodevaheoz0GsiI9Z3mAvYmLvLsi8Zo9Cz5oObV9qrzSzka9v/cNPZQECz3NkZS8mkcsvTLM6jz0YNG9Ogv5uxPMzjxf4A69WbiHvQB0Iz16xgg8oexfPeDg6jxLVNI8PJK+PdkptLzOgck97LZiPO/qUr20SXi8AR0mvRlUCz18Jum8KLaMu/m+QD09FDu7mf45vcgdKT357/c8OwzFvbLTZTtuoB+86xGhO3ukFD1k77+8wmSuvbssTD3ecmm9KCulPI/pYjx2s6G9GnpRPXdtCD0sCcG80l6lvZfpZrqSAmY8CsDbPDE1wTwJXNw88KWTvWewDD1FOX87tb+cvZOPnL1qbwg9N6pBvfKOdD2hVj+97o8yPQI5T7xIwp69sevyPPAEkTshOpe8C81ZPNa0j707vQe9NIRpvVpdxr1m2YG9PcSnvW5InzuIMHQ8K7GsuxHUhT3fhBO9M11aPSEvMrw4/W29NoOGPPmHab1sPAw9+arMPGDrbD1deGe9ZWQ2Pe7ajr3MXdg83YHQvGyRybwRAJ69zewpvLbBRLlZARG9O2f6vN1sVT2XiCq8SfobvVULjD118Ly8bDATvB3uG70YS7W93VU1vfU/RD2f64a9jCfuvJVBNLz3fc+9pYpEPZSGcr2610Y9r5kQvXUbED10v4i8pXeGvcdqqbwlePe8DV7aO1NQJL3+Ch692F+kvaEdAD33u888Xm8fPQ1YkjyrGhm9G3EtPMf3ir0hHf08EiExvdt6SD1vRtu8ph45PRRkDr3wj9u8jpxmPWYbgT1oJhu9iFgpPYa8grwaVVU9AB3mu+GbsTph0/66sAU3uySRvL3CeNk8pxO5u4rerb0RcUm8l73FPCzOKL210ZG8sia8u34UwL0+KRK8ROSBvIrgZT1xY2k9yFKqvWa5DzweJx+9E7+TvRf0h7wSCGG9vDH/vIKLNL20iKc8KY2Nu/wzEb3qQwU7YNYqPHROurxVpN67xHS6vUVcaT0jpfG7iHlZvVal7rw7cmK96QowPNUyn70GnUE9BStmOwNrLb1ibpA9w3wSvYSjiT2JmC266TCQPLXl4LtV87s8m6/AvXtu2jzwFFk9IYIgPVpLET3X8rm9NI2ivXHGCL3t4Ie9I6QHPNxT0jwjtRg93Y8oPVxQxL2PHjU8UeSMvZY+TTxprYO94U5PPRxACL1hbaM9lWCSvTKhpb3SgXo9qLYiPSRgbT17Xy29otEAPfuEbbyyOp29QOwVvAqYzL2girm9rpWNvUSX6juBirI8Km06PZRNFL2hoJG9QP5BPeBPgD2Ji4m92QGJvCm9mr2zx587y+vHuyC2fT0cn0+98XMGPcH0JDzBu1Y9JEBLvaKkGj232WU8fuadu2AOWL2Mhi28oVGgvKw8ODwGWpS8qBpSPIVDsL1HY3W9fE2JPdYP3zsUwoy8SXamvUa/hjwh1dM7yvdPvWq1oL0Int+8d+83vK09ULun4iW93wmaPCrSQby7HVe8lrtxPaqH7rxZQZq86RejvcB5lb29rtO9Up5nPaLhBrxpqZ29RsKOPBzhoL22Lj49UjHOvPZcZz1OwTe94rIFvfBnN72ZzG49olvNvWwQcjtpW9c8TLDNu0bH7LxUwWk9UdEkumNIgL0vyCG896h1vYgIm71JdUM9QC79vOFRqT2+xUW9LCzEPGPBkL24Dju9BqdnPZZk5Lz2PMq8to+ivD2yuL0VJ4G9NkuBvWzx4jyl08q98psTvC+TNL1xC6K90VKZvLR9jL2QCcc81k/yu1F1ZbzTqqG9gnJNu0/P8TvQrfK7v+qCvRrffL2A/ya7tWevvEXgj70QB667smpnPWXHX70W33y9+zjwu99qNz0ZEYu8LWYwvQv8Bj30iy696XYtvX21OT2SfRO9gCaEvBnB9zzhVAc9zMCMvf7/dL0c/Y494pePvRzbYTxy/8C9oP8RPVRfwz2D4oo925Oou6jCAr1Ik1S9w4gaPRFAWT0mf8O8ae1FvJoxeD34b3O9dLQvPcRVar1O8C682nfNvNHPI73zNN28Ye49PF62jjwx57S7j3CAvaOpb7zmaKK9x263vWAtG7xV3xI8x/v0PJu7hb2K6iQ9EF6svQV8q7znyRg925sdPQpxTL2eIJ69i38fuxc7Eb1QcKy9WL/hOxm1pzwPVc69q5+Nu9/5YL0DVdy7yy9XvXo5Xj2Aml68MAWVvc+CNz2wRiA9HECPvZdfsj3+HzY9R3X+vO9Hsb27ojW9zck4u7m5n7yfzgc9JsxRPScMur0pjB89Qa0xPR+nWz13nOc8EGw/vLIdJjxjSdu8igFaPQN4FLzi3qy92mTGPGc/g70RPxo8f0JKve2UULwX/WG91z1SvXMsDLv/Usq9Vbk3u2uA1r3suW+9pywcvMaT/rx4q3O8Ob+kvasshr3fN0S9pChNPe1Pbb0wgCW8WjDePJoDB70mV109i1gVPTy3jj2+UMK9RLJfPWzkwTwo2ou5lm+yvQCmh72k4Uq9WQAGvSRH6LzBTG89N3MIPS06PDzDZxg7591nPHxttjyy3x89mXZXvRUaCz0T/vG8ckgKPA+yk728zaa9xC+QPKm7xL3G/oe9y99BvYy6FTu4ZBY9gBwVPWvYqrxFbk08THJtPQIlVT0Ctqi9NlBuvWaHBL2D90S9gukuvaizE73JR7k7/U6IvRYN2b3eW1y8fJ+Hvc6Sw72d2rC954GNvU3uPz2VIo+926G8PBbLmr3u4ko8cLBuvcpPLbzKs8C9zGLJvbobWL0z2zM8qJm5PA3bgT1PJQ098nCNvUuJiTwa0Rw9wKCwvcfqSz3lcYC9SxLguo7bdL3QMzm98bz+vCBPhrrXFU69rGe6vchDNzxZWZ28b6H9PJdzpb2ebtS9+XEPPWhHxLtX7au95MiIvXFUEzzU5sS8zpsYvOn1vb1P0RI9EqCWvYECCDmfktO9w15MvG+7DT1oOoO9qoCevSNtnb1o4WU9RjJ+vW+QiL15aNW8KgMePc+jcLsA95K9IjizPCk30r2rTRe9T64ivcBDErxdky09HA9Bvc0EybqEI8i9EzZjubU/kb21aCk9VY23vXC/jb1EQxm9B0OFvZoUCT2RGJM8BlTfvIfhbr3nDdY8Edk6vY1y9jyfIra8ghoUPSv7rLxE4CI5lPQFPZykFTytxfc7kenQPA1UdL01wKm958gvu0EJoD3oD4g8TEejvXBMrD1S7CU90JDJvGy/orzywDQ9J7wiu1o5Fr2PMYG9MZYjvfgA97yN0AK97JbGu+cNdbyUtsO9kx+1vIrCgz3nW0C9hWX1PBi3D71V8K09910DvHWppr1vZRo9JbAxvRZ2er39PEi92qYmPUY3or3cTnW9mIzgvfgFaj0PLMW9E8WSvc7Qw710J0U9vsrTOg+ICrsOtL29ErU0vJB3gL1DhFS8NvNQvVPJZrttUMG9iD0cvAkTDjrncGw9CsExPRcTJL2jtls8Y3ZpvKcxbrz3dIW9DPg5PY6Niz1blKU8svSsPSY7VD0Lclq7QO9vvUYInLzppVC87vKYPJr94TxXLfo73rRhvEkZ7LynDwM8udQ2PeZiwb0R4j092vA3vY4Y3Tz4SnW8dyy+vdqwk73KZny9SROLPL4c9Tw8H4C8TeqvO9IHUT0CCKA7zYWiPEPqJz0qDww9AA+IvDfByTzWoO88FhuKPO7uvDwksau8/LWXvbNBbD3StYG9pUd9u+9OKb1Qt4A99jCeveH6Jr3UJGG9qU8sPTnJObyCIBM8gZ/RvIL16jxj1a69hBpVvY5EgT0UzAY7ft+KvFb8TL1146+9HmuKvfkcRj3gsKO9Vc9yvT/FCT16tRg9hzVwPanAeb3EEro8+V+QvYg/ir3W4s88utIBO+eM6rw2guq8AnHiOwm5hj0NaFU9VeaUvbpfwLtGHCO9aqSKPYsP+Dy7gpS9khYnvb3JKD3thhg9isNEvQRBhLy9yoO95H3ZPNi6I70ThFa91DWYvDtvmL0wm+U8SAqUPUOANz05Aau9q5VPvY7c57twzr69UWRwPafwkb07CYW9BYboPAj1tbzD27I87vwGvVDk/jpUDAS948Y/PcYUvzthINU93VNBvaBgjD3e6Jq9hjKgvYS5pb1EJCI9phrdvDB/bzyixLW9K3KGPWZmvL3fgou9ZYAwPS63w7qlP7K9sjpTPC+nUj0zIKe9aeCTPDxu/rwK/au9NhS7PHrdqL0AIBG9hAUTvUKdgTx5lay991ECPbqOQL138SM9Pdvvu25/MrziZoi9aiZhPE5Kk730mUy8zv6jvWqhEr2ca5K8UeoTve3mvr1s+Qs9W8MUvU2yb7yCZeo8Ma+CPZfVIr1bZDa9FCarve7Ax7tjlzc9YjVAuymcgr0i2IA85UCqvJCp3zz/3AU5En8pvKJaqL16l5E8b1qDvfFLYz30xLA80QcXPdruxr2drTC9g3SjPAzPmbwemyy7Jz+avfzKvzynbLc8cMw3PTo3Cj2FuDg9rqntuyBvl70KTn08C/+ovQzr0byofrU8qw8iO7eHu70XESC9oIyoPO5yo73LjqS9dIQ9PemsC7242tk7I12CPdMd5zyT4yQ9MviTvWe7Br2qIFq9kVg8PdcFh7uY4AU9u79YvYvgrjvuQCM9XPBwvcguGr1wzUG9Xrl3vWAkPzt0Wyy9ozGPvY05cbyeWZ+9bIY8Pbi0Yr0mR/48x00UvQL1CjwcZpY9FPUBO1aOqD2OgpK9QtpePXwniT0J+pK8oDS9PduOmLscrI89llhZvBiKRD0thAG9f/iOPbgWZT3vdu88u203PecDsjvPPUI96xiLu80pxb0vV5q9DiPivMyFubqxu4O9Tul/PQIXv7xZvN88VoazvUh9dD1371a83bSDPY9ucTzFIaS9yQmQPX6Ccj21Npo9nxNEvbHGiz13GA48U4wqPHt5qjxrDVA9LsJEPfjTob02OoM9a4Eiveyej7tie8G8daOzPY1wcb0Ez0E8+WYQPerwBT16/ok9jIl8vAQPPjxaVGM9HUGmPD/9sL28JmK9Wj1TPQpej7043WG3hXiPPOfbIbx7PMo8ViIevWSIIbwM/R07ZzW0vIDUl720jZa92wapPQyNXb28HcA8LvJ9PQSQn7wQdiO9rzp/vMjYrT1VNHO9qN86PdQlDTusnjA9XGiYO+ymqTufSkK9qcV7PC8GvrzYPWO9JG+cvTbkFDyo2Sc92yhjPa5Wm72XhY+86StDvZSHaTzDsVG9tSXqPOncGT3IqDA9suvXvHtryzzUlr06I2pdvYhquD2geAy8qu13PdyiKT3ROzi9+3D6vL00Yb2fpbM6yecdPcC+HT322Ne8Bk3tPPNutL1dtb28Cwx4vZIBgrwd26q9y1VMPFDxwDxV+7G985AfPYiS2b1KhKe9J/f2vA8PDjyqeP23yIqzvR6KxL2Ysp48XCJ2vdmXzr2S43W8Ldm5vfkDCjyp8YO81QW0vOGaMT0ZvVg9OpI3Pa2vc70Fv549dw9yPWpYzLycxdi8Mo4LPfyFLzw7kuo8fNaYvYKsGj2Oyq+9l47LvXzKib37FSC92QFWvdfcqb0E+gg8H3fkPInhJTznD4y9uPhmvOzJdL0iH1u9Ug3/vNKwEb0rG1Y9W+ihvaTktr2Lq5Q9cPUCPfxhTj16vPq7q22GPYs6or39fg89BmUpvZk3sbvsyik9D9Q2vfy3rb3DzSg9OvDMveOkTT1xmTA93QQmvRnCsLyIPyW9FNVxPQAHXz1dCta9VEyhPMsxab2S02O99ACpvU1bDj1azH29MKCZvT5jND0nUwu8Pq8gPQlxgz0SXc+8JC0vPeT5pDz06cG9liFgvISLszwuNRQ94gsSPEVraD3hPY69HmVJPdXHJD2NTCO9MCnEvJJxv70x4kW9aB2TPITbtL11Ic+96rpqPaVhnL0fpdq90GjDvYzizL1p3bI8yN6HPFMJJL1ZYwO9go9dvZksyzyoTKa8O6dLPDWvfL0SRNi9KTH8PBqWIDz8pZO9p528PKxC6LpvhIa9wY6NvAVoFz1q0/y8brOTOvHqvL1PEQ6714rNPCzUObxtlm+9G/aSvSRCq7xsIWo9u6bWvBwJQDymUJM7Ua0TvCHwlTxNj/08/ZrMvRhpEz2AIZ28UttVPVlqj706SAK8xk4xPb3JVT1aHTM9M0givNIb4LuqeKc8Lp+YvQnqor3zzoW9TZm5vUesZrzJSVi9+CsIvRVIGLxX2LS9p/NLvWetQz2bgiY8IsUzt70eWL0gqP+8haSDPK5+YDyOV5Y9GyKbPTWXgr1Y0rU5hbrAvIZlcD1GSFe5UIu1Oj4BZj0SriM9fZCHPOMcu708nAE9yD8MvNbeijxS+Pk5IPBXPUkUkr0n8Oq8O57SvT9jxzyZ5LK9k9Ocuxz6Bb3uz8e9z/ByPUbjt71DvFS97X2evWSH6jz5SqC9ii7DvU3ZBr2EOS09Kv74PNYFuLx2sG09N0ytvKwvXz3foGs9dhlNPfRNP7yJPKa93d87vfl9sL37T5u8oMm/vDrXlLvrDBE9oWV/PH06Kb1dGeK7T3agvTm3pLpa0Ya9nOhhPVpPtTwcLca9apXIvXLxv706v4A8Vio5vfD5njxFBCa90/akO3l/ADwIeJ68hxENvfa4or0JWrS8R2ACvXDSPj1r0oO8qzc0PWugirnD3le9NTCxPDsaLjwhkFm9gfjOO9WirL2+giu81XJ+vdJQDj3kdgM9gkeHvItPXb0oIe88xVOLPJdSj73ffBe8r2h3vVmDAL2AjxQ9OWJMvImmuLysK148wHO9vXVugr07LCY9mL0KPfOwg715Qis7tatQvdfKU7tNZCw9QMEjPWmeYjzj8z89yF8JvOJig73xdpA8Hc0bPHh43rwORWS9XLUcur11r73b6kQ8v98TPUuUV73rRf27QsYhPS+Fhj3UoR495bw3vU0+TrsWwYa9K1yUPe7bDj0T13G8D6FqvQoaGr0HaGw9o5ddPbVbl70mhJg9bV6JPfSrbr0zgqC9vv7RPcguW70cC549wx5OPVrLDD2amWG9Z/YFPCA4yT255sM7VK6ovBjuCT2NM6Y9BEKnPe9TWDzPzDk77vQGvba9CTwUuLy8XNeUvdHqGr1iGtc84nFuvH4yEryK0y29VwjTPZFeaL01Qjk8fRsVvKIWlj1UfUg9OEaiu4+qFT1bgB+96ZwvvcVLg72jlJq9PiFWvXiNKj1xVz48bDhxu6MNoLuLCYq8Y/MSPc/4Uz3AGpM9cJ1lPFsqHj3NVpS8ytybPeeqSL1eSZ88zoOsvDxYfL19BtY73fU6vbyXhDxq84o9P4PQvFq5jr2bm868Ga4tPOtLUD1Ub5c93cWqPet6sjpD8Im9driBvb/OUj18K4k9VZikPHvPNT2ofQO956QSvVLYFT3V3ZQ9QrtxvWeCgj3vLMo8cAFWvSm9Lb2sgq+6Rqt9PLnKJ734Xlc9s4ZrPXCN0LzdQna9DJgqvS1OH70TV0c9sOuCvTpypT1yiyk9ZURMPdW+hj2AOji8avasPfsEnr1EU0k9tm6Gvewggb2K6Sq8FvouPKx3t7xRRoA9K6OKvTsUlT3teWm9TOihPGYJRz0Ts5Q9JFSNvFceiz2yjZM9fJ+RPHstLzzgxLE8vHLfPKwt8jyiDpI9xeuqvAeYkDyDYb66fmdvvbr5ML2skUc9yjeGvbN6HT3kv707iNwNPYujgz2geAO8BsRvvRf4FL0zXgo9g8gGvLo8ED3Hx429a06HvXAYkb3X5i490wABO2zIOT2wDrW9J9gyPJRZHLx4juu8e5lYvHTcpb3YUj09FGapvV5YAr3bNt47t+ufPEUbBD2AauU7N04uPRyRHbzzk6w8C2w5PMAXfD05TIs9PE6FPVgiB72tp8m8oiYfveQaej0WQgY9jOy6PWZpxT0m1Ja8Q3qHPdIknD1I+ie9qJB+PCSCirpR2a688R1+vR6mFb03JZO8MVUIPTCgpL1kCN47+umYPTTcaz0nHHG9mRUMPYWy67kKwz09+pgevU6hijwU0SI9a3VcPIl1qL0gGp09hpSevWiOlD0drEG91a5EPZYCUT3/NVA9yKqYPYWMiD2FBle9b/q7PSFLsDvRlwu9zc2mPURXHz1OW2y9YYTpPGSwp71W7nK9qn+fvSuXvjuzsqI8VUwnPP8CqD2gF3y9VXm3vKVOkb2gj6W9jZsnPdIbH7w8Ajg9JOlfvLZeAr1OL0I9sOZgPRTtCDzzJeE889LuvDXPE73zANe86WRkPUHvGj1U0wQ8uCAOvUWiMbwmyIs8JsMJPeBdB704/Ze9mVXrvC23/7z7fZS9sikevav4uj1kXIO96Ea5PY3j8jy5tOq8yOrMPEjaZjxPPqy88DiePHlUcr0nwT89WKyfPT/U5TrdpPq7vtEWvULjkLwNsbY65RUGPeq7kj2UfPY8URVjPdZlGT19ae+84WZbPfJEED013oK9EIR+vdzIZL1os8i9m/9qPRIlIDx9xIa944C/PJLwar1F3229trYBvbxCeb3TctS8JqqYPCbQxL35CVq9HCVgvdJQHb3WC2I9fxGWvUZz57ymNTE9AGGuOkZ8wLy4Yji90c24vTgCoL0pgkG93UaMvZ3iabwiwmY9OBxLvSsBwb1hJDM8QU2kPbhKP73zqIQ9xbGWPfzsRz24u7k8eCKjunUszjy4KXQ9BkxXvZOklD3+WZK9m06UvVueBb3TPpK7ediKvEMI47xnc+Y8YzyZPbDSw73LGwc9TGRJvZ+2S72R1XO8YIBLPUyspry0KIU8hQb4PHCcOL2cS8i8UbvivADhgb2j5827aOoaPB1dMT0H6kG9ANoWPGMGRjw5n4S9Oc+ivHSuej0MnKw9rcrwvPMUG72nrLw9sIAfPZ4C7rz2hQW7kKuEvIFadD3xk4w95hSUvZ3o2zzaqDc9yIWSvez2lz0IJo88DfUyPS6GajyNWmA9k8A9vWoXVrsEK7y81uurvC9QPD1qW5k906K9u3Wfj7vnrCi962syPeemnrtl5eM8A+yFvWLYCjwtRHi94EwmPM/hmb2HaEe9SYcAPRY0kr2McnG93kmTPWWht7w/r+c86H9wPTanvDtnl6I82w0lvA5Pjj26MaC91iWJu4ASGDoVGsK94fDWuycXrrzlR2+9rwetvbTCz737v5g7SdZ8PRIUgL1KZ5u9OzlLPc0Ek71yhD+9cgOVvTlrsDxBehq9FZ81PZyNhr0WHjA976h8vcKJwL16X128ebbBvVI6pL1TacO9AM6lPMbrTT0albO9Qv6UvZtHyTwM/Vg9exB3vccMyDqSCX+9PRGQvXZTRDyjf6a98B3HvKgJED172Fo8g+yKPZYykL32YlO9lgjDvdhhKDsQ5z4771QjPZUFh7zei6S9pWQgPQR6pbz/brK99sQxPQnQMzzhzH49pnVwPSHe1r1M18+9HpipvTB3Oj2JFhC93WNePYEaH70LxTk9xzgvujYPRb1ioSE8UVsQPBAl+jzPvik9fu4dvbXZZDyVaGC9dqOKPB/Ukr3arvK8KMZNva1nVL0LGwm9KOmyvMIxsr3oDu+7fPchvSRVfD2QXTM96ElJva4uNDwg20m9zsaEPVkUZL3jL8M9l/MXvTcdlbx2j6e9qDGIvZ7eD72m2mw9bFy6vaVeHb1CYo+9iokNvT3aRj1OZli9ijCvvCppPr2beyu91FCqvZ0jlr0QTqY7FluFPVNxx71zbm29mTVbvRo0br2kvEg8BWovvdkRbT0rwgc9ErRlvddkgD3dVTY8W8WBPJ1He70Hr149modDvYao27s6/Te8cXo1PeE2v70mRa29NatlvA2kJL2hPie9kgxLPWEYVD0Kcxc9C68fvVz3+rzd3qu9tTOkPI2wqL0+xU68UlxzPeXEGL2+4Qo7wnS2PKEn4Dx24na9UJxEvJW7F7xkLPg86xVSvXWQmL2i+mW9FpjQvfXZz71t/Ye9zF0AvcRsAb3JIbk8WDFmPYk5RD18UYq9CSiIvYx6Nz344Fa9IQJcvCUqVr2VQJO9dPwaPTX1m71mlg29+Y0uPLvndT1VokK96L6PvOO+bT1d7zS9FctTvSQGlzsrNwS93yOpvGVIxb2qYjS86V5/PVaRg73KzhK9M6KVPKLTVz1TxA29PsNYvTAV9bwRWD69yjcLPSoYybx+XDc92pJnO9V0Kr2Ioik8c5kUvXXBCL21M3K9u3KvPR4lTj1skJ09hFzJvZ7LOL1teyA9BbVrvXtJJL0kYAE8K69rPfLCTb3aNH89kcpgvQu+Gr0W+Ru5iqF1PQxRG71e4ok9jzSUvePTJj0p64q8YG7ePMnkIL0O8AQ9G/AgPH7mnDwRJ6i9IQraOkPLxr2e0GC9+e5MvbWlYj1tFVw9dzByvWFr27uQEYY9X1BCvfm9Vj0hcoK9RnAbO37kdD3cfRC9Pnr3vGqpTz2McsE8BNpsPdwIs70u1jQ9QSmuvWQlo7zCVKW9omRwu5vmNr2xMro89AbVvVyN5zycu0E9CP2DvdPHoL0TNS49LOXHu+GtWL3DVGM9h6/tPDPwgz1qvbI8+Jg6vZ4DDT2jAkq42voJPVLjobpUQ8y9bucXPTShib2i1oE8VQcdPRABHDxopVY9y/cdvW/oszxXuQE96LqWvTFqMTyGDq48xVlbPWEcr7x4Hbg8faHBvb0gv7wfga69MCqDPQaujz2FNHa93tNYPWg1hrzX16u9LAsEvZg6cL1rb7q9USPQPJmNuDx/W8C8T/d6PAUK6Lz9zY49tsStPPY3pj13YQq9copovfsppT3ZJgy9+rKuPZ2pGzyFwG+9HC63PafXq7s4gpE8m8fwPJqVhT11ZK08Yr2CPfsxjD1uOr49IfU8PfxuKj3l9g48PEBivLsCRjucbOy8xz5ovOwNijybXPi7JLVJvehqL71s4mE9L/jxvJNchb0Ww8+75+PlPLJQGb17/9Q8S0uFPFyRa73CjGY95uNcvMVOsDz0gl49bVsoPXKLGz2afNQ8p+BzPdFpgr1/xDY7hrWoPb0ae702GeO7+njRPFv1Oj0A+me9U4fzO8ITkj1M+Ic8zGYWPVjxcL1LhJa8t8G5PZTBzz0nKog9fvbGPXD1lj0n9JA8emxtvW1GhD1oJOe8zJS9Pbw3PD3P1ao9lplPPfCUnDwDHI67jntoO7wiZ73bfH49ca3IPXUTjz0ttC29g/IqPAwYz7wDd7g8ewOBPdl2gD0F+4g8/KO1PR7HJrwgi1m8+UdYPf4zoz2jH7c97l1vvJg4hbxlbas8yN6cPaEd5Txad0W8M3XaPSxyEr0HCWq98xyAPT8uyz35z4I8u0eEvdrSqj3QJwc9fRyIPG5wKL3p2JM9K//kPNOT6DyojHM9faFTvfv9bD26+eK8f9CcujbbgDs+AIQ9xdIIuxMn1jzqIb29rrI4PWGWoj3Zcnk9yYWqPddlwz0ubek8FOeLPRWBS71zo4W9EYmbPRRCoz3hB3u7jyEYPVhivjwmjdI6SDdsvMKGCDyi8Qo9XFZYve7cpb3K04k9c3WkvWy5Lj23uQ28XvuWuyBGjT3LOoO8Q4zPvYhsJr2luq+948AHvZcgI7z2os47B3TGPPwg3zzvqow9aMpavDuyXj3u9pK933mEvFBAJzyIqru4JuMoPdXObr3A7JG850aivSuJ3bzYy6a9S/13vV7pmbzqy7m9LVAOvadngLw5fmC8TLJHve7anL3LVry9tMB9PTXxor2Cu229P6otPcsEd72VZQ29Wi+HvXSU+jsCzdO9vfSXPb4ay7zov3a9l9xqvcmpJz0PZZa9JGLZvX/Yvjy7of28X7tKvax5MDxB9Hi8iJZhvas8Wrx8r/Q8Bs5iPDziJD1X5ZE8EfKrPH1AoT3G9289nLDLvdXCzjmeJ3U9mRifvK3rDj2bhrA9On1EPZ5X5Lznamq945OSvUsvnj2xtTS91A2cvGgDxbzcJFy9YQh2PA8BTD3EHp88Nk8lvfun6Tx+wwI9N5ywvZjKk72CojG93p0aPTGQDT2tgpW9G/KKPezLOL0bF4U8j4bPvJ5lZT2hSam8ehutu7R9oT1oTZ49Gfz5vBrpE72j7Ja6geihvYnFVr3ktUo9Y/qYvSNMaD2sF3E9XRwCPdk1Wr1smTu9znhqvMLBIb3N9b29wNGDvTqQgT3M5DO9mYgNPRGrgz23SDY8tiiPvdWyhz1584m9VnCROmfYlr1yTBc9WuWjPMwnAz1igwC9ZBetvVSW4jwtu5a8sKW8vEHPi7wvkXM8q54SPZsAcb1fj0k9hBebPIdQnjx1mxm850CBveZyYz2wvQ2960UaPbgDh72Ita29qgSJvQf1oDxmg2g8JGa4vAO1vrtwFr69R8wovaQNQD1qDRM9xoe8vC10DTw+5ja9bhPMPQYyijtJCyO9W9EZvWJGvr1QTRA9RnxrvRFKdj3eO/48RhhHve65krxZyt08TH2jvVi4M70B3gO9A09mPVALVj2nGr08A8chPctKHL3d1MW9MJ5svZF2J733/3g7QuW1vViIgj19cdw8DcywPOWbar0KgB69LwgVPcbCWb0IFLm9HWO7vbs9VbwYiXc9rg6IvdeL2Ty52ra9hRXaPK25wb3ploi6IqKAvS66JL3d70u8kvk9PTiojr3gLFo9vCjTPNz4jTx3Qda9pUFwvXTeC7ys1gE9jfCTPX29eT2xrYk92xz6vERDwbxP4Ms8hSJ5uy30Tb3nUpi9TVK6vWQDn73Ji0o92LMuPcqkW70nT5e9gLNEPYvJVT0jRCi9elYAPWc1qb2/D5y98b7Mvfr1w70Os6S9JE/QOzUerr3nJWK8HGgNPYPFr73m+HA9CAcKvbfeOL26wXM9sXuRvaNyeT3ZKdm9xRBAvEmsj72XqBi9ss1iPTsT1TtSSnC9XN6DvRrVrb08FzM9twzvO9SwKL30CZa8fGYtvVMdezv00pW9DwWavZM1LT2J/pq9dKrCPGIJv71GrDK7agADPRfc/7xsyLi9TbjIvXIF1LxJ8fy6nuh8vVdppb0AiVs9qgnHvalUqrzQi7K9/+8FPW0Mcz0zIoW6pYMavXdBhLypj8+9zdx6Pb1Iyb2jdMe8WYQwPV7erL3dcSA9vlosO007DT0aqUk9QUOhvWRNTj2rvTc7yRpcPfZ/5DxTxcg8eTGuPUSZ5TwQGBe8VBWbPS81g7wSW2W9rjH8PG2Osr2H1MQ8QjyXvVmFoDy5L0I93tufvT7577wsRqu7qJT/vBVESz3nHQM9oG5xOpQYqTwVohA9ezJkPUm64zuiGHy8YHTUO3GLFT2nbIy9BLY9vYeKZ7tjDz49CYE9vSn+8zsf0SA9UUGGvaaSEzxUVL27INocPV8i6TyPUIo8vBasvaHevb3Stgw9FzJFPanb9bvrvxI9Y7w5POtWs71sfCq9dTYgvWaShL2KcGE90Mo0u5QxQr0/jEa9L9QmPW4UzDz2sng9rTKiPXCi+TyZzlM9Ki+Pvepyzr1MUaO9Q16Nvb/tqb0MAsW92QRUO2iKsDwTJkw9pNtpvBZ2a7rno307JeFoPVJr07zkBoG9GmmRPf8S9zszPj49Z/ofPdssLzv8GgA9D9EMvYXTYr2iE6e94BxivSbhEr3i27K9cKo2PfHHSj18CmY8PF6XvYwNCr0D9AK9Jym3vZ06Rz2JW7i9q4EBvcSYQT30EXs9NQd7PYxeOb1kAb28e4bRPU13kj2zvro7UUekvW5kIDtUnvA8w8wEveHUDjyBcFg9tuGWvUKZOL02KX29xQirvMgfgj2x7p+9BA3dvFbx+rvvBfS897MePb5Zxb3CirW9m1x3PQiR9zxI6Y877Wg1O9DAmL28oec8mlJSvdNIjjyheom9bMS7ul/jDb0wGXI92NB8vXv8Yj3+lLW80QFRvY43dbyv0++8VWB8PXm3MT2zDIQ9X+UrvUVxRr2fYOQ7FMcvO5GuELzY9669fRhTPB2ocT1WMqS9nw5PvUQXN71cmn28qIeBvN2Yv72/5da75AFKvGL1rLvj52G8tqeqvTqYUT1zJ149LNLpPOjsMj2+MwW9HmmkvRoEyr2QGQE8eWziPMznEL1NsYM9UsGhO9uimD2uL5M83GvouZPFI70eI4k9Da6WvSutML3KFbG9VQkmPIB2u71VuFs8drCXPZIrxDsYtIK8YWmXPbsWLj0UKJm9exZJvU+elz3NXQU9ie8vvfhQSb1UcqC9EOXRvO90FL1xsVE9C2GEPc9iZL3+xQM9KFFMvQ2ARD3WHXU9deFKvX2Qzbn13lY8rSOHPfKyv7yjitY8AjuSvZKlqrx9BW69ZkdxvbyGybwHPNE9wppRPHvbVzyu2je9fimNvVUujD3h3sQ8q02QPUmmtr01b329r7ErvafGjL27OBW9RYwGvM6lgz0JljI9QJbHvFNlxb2QEhO923yWPBPIZz0SNcq8bvGKvWYsvr1jGMK9GqXdvJ9iVr0ZsGi9YiRBOwfk2L3kv3S95QwVPaj9Q71qYB09atBqPTZKFT3h01y950suPZPRq70mPpc82a4aPTsFUb0c2QE9HIx5vRdaOD0LHYi8xGFMPYavgz2MNR+854iBPONbMz2hSfQ8G8qlve54or3sKAW8QilRO2scijydHRC97dYevI1H4DtcekU9J+T3vOhnBT3Pwgc9fvLDvY9ufz1uoIw97T+JPOp+n72r2E49zFK1PTcMmTqfwcg8ozlcPcgpYb0mLZi9bo1oOuKM4jnfwIu9X/dVvR2PSLzdz6a8Ho6evaKEML2ZoMA7z9KQPQ0ATj2ygi89frB1vLlJcj1xzLE9Tqp9vQALLr2f24w82wn5usPyyL2iH2A83qKLPDpjJD1YMkg95S/DveK8CD3MC5w7Vv66vanTh70Zt5G90zICOzdtfLyZSjg8Qiy5PM9wq73svkW9WaWtPO+NrL0T9xe8afJmPVWKp70Ckh+9XK/zvFgzZ73UiJA9TZpBvPj4Ej1nzGO9WVLYvUyfaL29J5U8M1icvZb1E7xkcxG8lMisPM4hfDxiCF29O8mXvWLPvL0M16a9w9vsPEOlq70y1A+9mftOPbbhgTwqFhw9RpalPPOz1zlpPni9+NcQvaaBiD00uI29IlYJPHpyor3PlHS9BGc1vQZThj0hCEc96V5du2CSdbveL5W9XRI4vWeLj7204rS9fpOuvaOVZzwjpEa9zQpivdAPzTzNVUe90DpHPfh6gr0Kgcc8Umxqu8pWTj35WBU8iGhLPRaoSrzkuKe9MLEcvU97cb23mZW9YEl7Pe/5JjwH3ow9tJ4OvFv9T71lyps9N+oPPZGWKr3i5js9F3grPdMcIT3gjCM996dMvVzFJL0CXca9BuGEvKbvqz3dyay9FcSdPR6UAj0EGAW8xMNgPWlKOL1VuwC9TzFDPSPJi71pt9G8y0b8PErtdb0zlLO9NmtKuzj/Ab3caWK99HfOPLeUXj1+SXk907SFvYa6Bj3cTtq8TISQvUn1QjwQUca8L+AUvU5COj31vwe9jwkWvT9xBDybdvO8Ju+AvS55Fz2SPMm903zgPINvUj3GbDM9/uYYPYCdR73HL4q9Uko3PWIa5TwXaIG9XN+VOnJiSD13pa29lV2XPd0uwTyMR509oHUyPaxdwb2H8F+8YjW1PU7PfL3ifcy94MoIvAUU0ru8F+m8mfxSPM2wFD0ph1G94cTRPH1vfb1SO988Lh2uurOgZj2Mo0g9/qOZu/hjKD0EhDU8qIqkvXNHUr1T2389XaqCvZB/oL1aSVu9nZRGvbItyT2oUaS9O8OnuhaR67znND+97DCMPZ/mhLs5ars7lCb1vCRoK71KbpC9ws2HvTgB8TtrWZu92RlevTXsM73+jvi8DPSKPQ1agzwcpUs94RJFvQLtKb0iVLm9EJfVvcYJlr33zYc93cNKPRvQUDzkRsm9YEImPebYOj1X0Sm9JFHPPNY2x72Kpoq9D96iPHOjeL0ZWo89gZ8UPb0wt73Arns9KU52vTdNJL2oM1K8iltovfWYfD2EnBm9pN/dvFwaiTvSxYi9gAR3O8sk1by7BbO9q0JevcSjSz0sCDQ9fp+BvOzoBr37j7C8qOy/PKKm/rplk3w87YTevAgLkLzz0FI9V83sPHYKfz30e7m9Vv4Ou/oYoztgAlg9uY8kuxo8VryX7IC99197PdC9mb1rwPC75LVguoKYp7tTndC8TY8lPUKJ3zy9CRc9HV9SPW1LXr0MlT295M5ROxrrIz30xIU98D9oPdrylb01JCw9bk87PCgYKb12kN68K/JgvcOfCD35pwW9uuszvdi7UD07mys8SIj3O7t2g73hBxS9viiGvZj2Oz1c6jQ9nPiNvH8Slb0Lg4a97WNmPDfp2L1E1wg9q8zNuyFb1Lz0PLi9wB9FuiViKb1D7wK9BjeqveuPF715PQw9OKbLvN5k2zr1Hwu9vJSGvfYOKjvR07y9XVTNvPfmBz1XYUM9oRvvusWPRz0BT629kNldvVc5yLwvix+9ViiPPaTRjrytLUE9smENuxIbvr1xUWk9gLpWvW567rwj/229QUwovTrEXz21TbO9gYiyvUd/jrx/scs87baBPB7+a71L3vQ8r1wAPbnmh73njl497YuhvGbujjxYjoW9azOGvRePnb1MCfU8ERvAu/VhB72QQAa9uiM7vU+LRzllwgE9tVMcvEPyCL08lqW9Fo59PSspdb3KC1M9aio9PZ3X+Lzq+qC9xzf9PHcIVr1sSoq9tVOjvA6XOL05arC9OCmAvTfjS7voRZC9YiJ/OzzZOr0lgqe9/Nm+vKQ5Wz3mOxo9hmFZOi06Bz0+taM89hr8PHu/xztZV3A9piq8vG4YVrxwbqS9gNaxvdiMPjxS/j49BcQQvX9uIr0ghuW8QrRLPUDOiz0HDaO8DGQSPVoP+DzO22e9iHe/vCAzgD0va209xTibPMt8urypby690IYBPVji8Dwed3M9qnIPvTXNgz2JV0Y90iGNPFqYr73p73M9HmcYvZ0cAj0YQNI8YqwcvRRR6Ty1a2C8I2YvPd/AsTxDJBC9kW92PSEVEjzSygk925f0O5bMnr2Bop+9Z+WlvaoJiT1b9WK9CV98vVV9bD1zxGG9YrVIvaXTJ73gitk66gToPMkYh72rqyI8jOnIvBrAVb0mm768ePnBvHDwgD1J/5u9q7OjvJIYG71wANq7ihnBvIN7hT24teC8ZwCyvWDOM71CBdy9psVrPZCg+zxUYgk96qk1PWKNGj1Eyoq7hkeavRkPrb1dGm69WBygvINKID2xMXW9u4dBPXyhzjwTg00945uqvZKkCT3sjtW8Lc5VPTmzEb2s3PY8OeW1vR1/Wr1xClW88JmCvHV8HT2oNZY8J+2FPU5CaT2/eka9v23fvIBJybyn2hM9R+n2vFCPGj2YnbS8qd4uPYxScj0JvWe9AnC4vHL2xTwObI48SRIHvb3/qr2w2l29Gi+mvUdeUj1yP9q8FQM3vYw4ET24dba9GWQnvR08YDwwA/M8FEHMullBo7y+D009S3bavMjLEz2YxHE9BOoaPcRdGr2tysW9Y9hWvdFNYz21rV89+w8MvfNjsL3joGm9wgjEuQKkZb2se0a9uf2LPXDYbz2tVbq97mRZPW8tZb3Mvcw8gEFMvbgDhz2qfoq9fLADvSV8Tz2YPIE8gZeNvRsfsbywOeY8Bb1XPa4qPDwCWq29bjzZvD7G3rua9a+8Tx4uPZQOCD2Wags9G0d7vWioS71dUFM9xXyhvanKdD22R4U8Lz08PDQbyr0+kDU9miOUvDzarb08VWq9mN3kPGO3ub2ENZE8VuyCvMZ0kL3sG9i8uusYPSDyk7yiBpu9q6JJvUmzhT3EbyK7HuilvfGjJj2pUNu8q3aQPbwNCD3lVei8VXsaPLMWhr0eYp89P9IFvc3ypzxHfFu8O9CsvbMUg70O67O6onQ/PRfNhTzpb0M9nuCHPRk/s72nIMK9dTI6vN4Kkb0xeS69jtBAPbPugrzm01E9xGlmPCXsDr0DrMg8petLPFUoHj1Ewo89gZyyvJrGgjst6RQ69MMhPGyX9zy3ZWm9AufRuwEh5rxX5we9ar80PTbvpbzX06K9KRKJPbHmo7t2KjW9py4culnyb73HrVg9VG+bPJZVlDxoNoK9gAW7vQvDlbyH/069J7qKPZ4ut73R7UE9MGR3vdUzbz007jK8PHWJPauxjzs6o9+87W+ruwWvu7s8iqm937DOPP+3Ebu1SFA9KzGOvQgonL2UvGg9QANcvRMWET0wCfy87AAavTxxjTzmirC8+IqbPLBsbD0HjTu9P1O5vd08i70b0XA99E/dPGifWroV3wQ91NUMvVjpmrxFBYi9mEi1vbJtbT1x97680ZMjvWi9b71x8G+9DQZDPUfYVj3uVjQ9+OEivbDXC73JcWa859u4vTwGjjsn/KW9H2+Gve8tz73CarC8jL2BPcefw71z6JS9krCQvVPXjr3tSjo9039BvZqBQL3x1Qo9uhiyuyoAhT23D5W9ojNzPTxT2Ts7kJE7YjeAuzmAWT00Dzy9+PRZPcq5DbwY3G29xRFvPeXnYL1fj7a9y1DqvBFS6zu9Gdc8w1RtPY8aHj1p+M88yB1KPWcBp72mwKC924udvTxA5bx/4oq9XwYSPYV8pr0BYxq9eHqyvWKXe7x+Q5u8d+GSPaVjWD27ZuU758iFPV5bh71rNg+9atc8Pd3HCj2i4k49+x2JvRz7mr2Kuts7U0PhvGPYkbxeAbG9RJTwOxMul71U9iU91JMkvV82kzuaozo94v52u5MAiz1aEv+8GFMSPckf3zz1i828h5+svVmo3TteXik8NSlsPdJbWT1NwRO9vF+avZyErb0dnQM9pVA6PcWli71ZPF89WEU8PRelFD2bIBC9lt93PZ93+bumC449Z2yTPczqIT076NY8G/gQPcGGpj3dvzW8WXhbvSKtpr2ISuQ8tEs6Pf9P9DxLf429knXKvbe0K7rkTjU98YDyPDwtUbwC+pe9V2zHvUa0o70omAm97lzru7zNHj3a8pI8s0Q+vXHxSj3NRdw809FdvbUNKL0JgFk9TufEOpCfp70yI7K95y0uOvm+QruFEDG9OtGAPMLpAj2RV1W9vrDxPKh/Qz2I52y8cHaivS1RIL1yl968FVO6vfpgi72SAPM8Oy59PZ1Ahz2xQLW9wK6zu9OtgzkJgwy9RyAivVvaib2lEb+8nGKPvQ1qW71Iz1O9B4TNvQZgp72URnS9Jp7bPInXcL3b/k49j0mcvZ/HG7z83P87E+BWvYc8hTy12Om8Yg0uPU/X1Dx1F2c9su1cvVZkyrvCMpw9xVXdPCi/Zb1JfDe8dX8SPUwRnb15Zne99kQMvbarhTzyjBS9YSUevFawfbt5+Du845UFPP1ntr1s5mq8BZ0tOxh/rL3q7U09yzuyvYqef73ADGm9rBYgvGoh37yy8MS8z1novM4RMD1sKne9YVkZPTLM1rs+2Ui9ftGovb2A1bw9SZ+8RsAAPbiLTT25e6Y8Ss6OOgiVyrzLyYQ9bZRCPRwbNr0vILq94Q64vdnsNLwoiwa7uYwLPVSnIb3HlTo9T1ixPRHXRz3Kif07hxJfvLssH73oJBO9OFgUvc3lP71XZ6E7DKrQPAgu57xnLxc9YFQGvUXbBbyx1YK8ujamvZz/K727pMk8FQd4veEbOL00GIS9fgqYuyooyTwMpgm9e0TMvYxghzz8plM98OfCPA7jKroR6FE9xSSxvaWv3Dp2FXe9k3BGOzmzu7yQWO87n13EPIMtTL1mBUU85JW1vU/qYD3Pdg28kOB0vCEgtL2ltIk81YG8vZQQEz1wvaa9uR+TvcvX7bwI8MY8AitjPVnZXD28SEY8jJmMvPopz73a+2k95r/Fu8vY2bzt1lQ9D+ghvcyh7jwn9iw8NLdQPajBrzzYuaq92aIPPZw6Yr3/DMk8HWglPf80aDvw0gc830W7vdFgGr0gP0O6uW2cPDz8b70Cdsg9pTOyvQ34cL23WPG8AWNKPbeBpL0/Cs68JNqhPRj7zbzJDJm9XFG7vAB9KrwQrjC9KHEZvZJ7Yj2wu4i8tpA6vfafWL2umgC9Z9xovYmrUb3ZAmk96FSjuUZsZz0JQTy91adzvXaBnTz6RhK9DTTaPIkwrz3A4Bo9wXwgPU667bzsBne9Y3ecvSnqkD3pKLG9ObihOldos70Lnsq8zYGGPU2AqDsubCI9Sn9nPeqPTL2wE6S8pRspvG8rjL245Z29adN8vanbhb1Iv8u9KuMzve1iOjzZsoq7b6A2OSgqML3BYoi9fL5fvTdpnjx2HuQ8rEAevRs3JDxDoYq9a1/Pu44WLD2S+UO9uaAVPRf/hL2VYkm9Bie7O1daiTzay4C9JCisvUgEBD3rDRe9t7M1vTwhCL35H4S7C2mpvD/qwTySjgC93YokvQ5unr3UWh+9bAJzvZo1Lb0xWIM8v6K4vOiilbuK95u9rto+PQK29jzGnEe9YfA+va+oOzxX9829FejQvJbqzLyVnY098ZXRPPDGcj1aEey7DNaMuy9Np73OIj89vL5uPZQcS7u9q6w6squHvBBmr71hsh49kstkvWwUWb0B/5490QeGPSqmVz04vIK9QQOBPVQDLz0aCoE9JLLdvIhBo726KQy91i+evT+tLT1256A7MMhFPD7YDr1Y7hg7gOSHvM0y5LxTpOe8YFdkPadpcr15K0Q8KNVAu715DD2+6Xc9VQgpPbS/t7zyR447ioyKvbPg1zx6Pl+9wSNlvZWa3L0GRt68312dOx3vgr1+MqK8aFswPYfrqL19ujK95rdYPfFcqToMmcm8skdavZf40jw0cZ+9UHwxPDLwSD2RYAu9U/ImPMvkWL0gHqO9r5t6vcZA6TwqPic9CE5gvXKFbb05Ozw99/r4POdLFDrS+yA9+qQtPQM6crxh2iS9pcoCPRQURjsd5gy8EjnVPds9pb32F8g9vO/OvfDR9rwAdDK9FKEXPbNik7zgAJ28SI+LvZ2ujD28PZq8WRC1vUCORj1dqca83LEdvXgiqL29/2S94R4UPSE3lz3HxTq9vsIYPcAebrzXdxO7h3m0vUOShL2epN08tgn9uwX1YzzTdh29CbETvfijv7xGWFc9Xm0RvXulsD2Vqs69vi9JvVXTdr1XSnw7bA1ZPaGkij0VGUm945W6vIdml7zDtiI9/9wGvTUcA72Itq69fLsqvZsWGL1V0Os8sIbuPA+8Mz3H9oE80HAhPGvdiz39rEg9ofiJvBclgD1InKS90xg6vHg+mD3YT+28v+YCPcFZD7074v68c4VivR0BrrxiuxI84NQaPZgrM73OHl+9YvfWPdlNLz2A7ME9WZrBveD8YDsbeZ690PVlvXcitDxQ2Gg9FqBTu6pJszwv1ng9SYIqPDOTqLz9ud+8Sp/xPBDNYj3pPKU97/cTPKu7Ar2dkR29dMhKvTDsTD1dBiq9pL/XvCPhBr2G4ZG8qhV2PfoVjrzHd0g9FfKBPb5qFT1srjU9DmU7vURcZb1xz6O9dkKIvVyppL1nCzs9kPkWvQPDA70TFKu8abYBvfCOQ70HXJC8hGCfPcLphD0g6aS9SCSlPX502zy2jYo9+OEfvXgLTr1UKoc8LQFMvaZNQL3CNa29BA5pPVOjmL1mc+C7nCMzvVI/ZzqHmIY6BXFIvaG+2Dwe3E69C3U1PIpCAb11zkQ9dFWLvYgerb1HfjY9px0ZPObUtr3ktAa99cqHvM/U+jyqp4q9gVq8vb1FQT0CBwS9aKjOvLWqf73i5Bw9AJoEvTIzv7w9JHM9jc5SPW13WL3rdqy9z+qvvYvQXrwwJtw8O2xsvJmvg7yPQa29SKXWPC6YxrzUBho9OT+UvdPIJL3HzOS8XGIjPUgrYT2a/2O5QG4FPY26XL1sjn29ApJGu92osr0iHCw9f5oOPfZCkzxtUSg8PtmjPDrdXTzQP3s9HfpAvUgHkjxF8Y+7LMYAPXN+FLxtQq88Re7JvdKkiL0/G+S8XqDPvCwuY72eg4+7BMzPvQXZT72EEJS9IhxoPD84aD0D76W9uhsWvCANGr2IXym8ALSbvX+Nh71E1SS98/iHvfxEhrvelYu9wB5JvSUyTz3Q1/s8giA3PSRrtrxBQ8i9O1mIO1fwYr3Spb+9v9dXPT+xkL07sZg8rq1pPdxKk70fu1Q7kuB0PS9gk733X4S9TsK5vV7qez13HcO9kpdbvbNIBry7sXK9Saj6PFoaPbxNq5O9UEsHCE7lMYAASAAAAEgAAFBLAwQAAAgIAAAAAAAAAAAAAAAAAAAAAAAAGQA5AGdhdGVrZWVwZXJfd2VpZ2h0cy9kYXRhLzVGQjUAWlpaWlpaWlpaWlpaWlpaWlpaWlpaWlpaWlpaWlpaWlpaWlpaWlpaWlpaWlpaWlpaWlpaWlpiA9s70gnGu1s3Nz1qj0E8WgtPPVvYx71x1fM8SNTYvGFZnr1N28888dRQPYXCYD3xnAA9nqVgPTsusLvykzK8KiCrvG2XwLxnwWE96hXEvADA+DwwPYE9uxdPvXP6rzyDAIm8RnmEPcKRiz1JtZw9bxRUPQoafr0aQMW9zlWuvFBLBwhi0oR8gAAAAIAAAABQSwMEAAAICAAAAAAAAAAAAAAAAAAAAAAAABkAOQBnYXRla2VlcGVyX3dlaWdodHMvZGF0YS82RkI1AFpaWlpaWlpaWlpaWlpaWlpaWlpaWlpaWlpaWlpaWlpaWlpaWlpaWlpaWlpaWlpaWlpaWlpa3Z8IPSiKIL1mCIs86vAgvXiR8LtDQTI9kQnuvPFpCT3pNxI9RHIwPO47qTzbEgG9NKgoPJZg2zwAzIS7/g/TPLTKJrxdQBk9rzsIvazsOzwgQH482NESvDhVGbzk1kG80LwYvbytIr1QvAW8bw0bPQ9mHz0OEPA8Rhu6PPrBq7wijAi9h0YkvTruxzzwbDY8RmIYvYmxEz1enR294RTbvKfCsbx+MeK8YIQlvMY3Jr2rfAg94ADjOpErlbx+RKU8ykqPvBSW5LxQXf+70iMXvZCykDyZ8TI9/Ok5PGn1MD1x/DI9rRAMvegxj7uZzCu9lG1wPEA4grr78xQ9ADP4udok+DyQ/Fi72GK2uy61uTzaiY08FRzRvCjw4LuMEuy8HP0MvJCTtbvuj+A8wPlNu08ggLzolbw7JG2VvF3SDr3Oe7Y8KK6rvGSVILyg/ga89JMRPMzoTTymwb48wP6iOpxoGL0ppYy8QMlcvHAA3DtdxCo9cAEMPIgjXjyjbjE9QASyuyhAALzQx3K8Lv2yPAS5JDwuUbq8cL9QO5o2jzz3XQc9Bq/OPMk1BT24rXc8VENTvAyHWbz56AM9aD01vKSsLbyQzJ07SJ1SPMNmh7yGNc48hgffvAA407eE9kK8KrL0PLSVg7wnwiM996gTPXZ8nLy47Um8ANq0urRrqLzxcJW8SeIvPYBljToV5BO9/lmmvKRHUrwSC/y8oHAkPOMFHD12Ht28wHQLO6nU0by7YRa9QKCGu093Az31K+C8IBQFu4koFD0Ao6k7NGMQvXRLEL29nCu9vpESvR1kK72oEEs8vyTKvJLNVrwzBw492FYJPN+ezbzwRvc7CRcmPQ7Q3jyEy0Q8SEizO1pLvjyqUiW9AF6WuHsiBL1o7AE8B4srPYCDrrvgIyk7HIpPPD1qFb0GG+w8wHD/OhhAOrwISRa8claTvMrnKb1MJz88xuvYPLCYLDsAhz67gxrPvKlBJj3GMwC9FD5NPDRMQDwmj+s8y7UVPb5quzxRgB+96EZfPGBFirsAzoo7FhYxvQ9jLL0gUEq72ZkPPdCATDzw1oM81hmfvGzgc7yfhRk98Kk8PLK2aLxsYVM8UdkXPe2gND24tQc8dQAivRDzA73u1vU8ljjqvCS0J7xPbiC9mU0gPatH97zgHcq86D2NvPDt1jvOGtE8PgruvJmyEj1ALl66I0u2vAkuLr0AXK2462oUveyiAbzY+Uq8eGkfvWV4BT3WGck8Mnr0PNm5nLzqSfu8kk0MvXzZL7xvbi89RFAvPA++L71wY+o7wXAmPeo8ojyQxxi7rR0HPSQQUDzmueA8PlUmvV7YvDx4MmA80PIYu8IDyzwVIAS9uOWGO0j9ibsw+aI7GnviPC1KBz0ESBM8cXGyvLpW2DyQHji85RUBvY2zgrxg4ok8Vy4rPZYy5rwm9v+85L4HvHZvuTwA8yA6kFF0PN+kHD08IBk8CrzYPA2DHb3e9+E8stW4PHnkGz3z3c28KhMcvYNwsrxwEyy9df4WPYDsizn4bIC7n+LcvIDbDTwA9BY8i7wHPSWxAT0C4Fm8dDUYvNqwmzzOjaY8rW0gPVwAXrxRLR0909YTvTLOurz00Us8BCBoPE9IlLxCgQu9OlD9PLwyJL0rqN+8ERUDPRhfijtCrPc8O7s0Peg7l7sWOF+8NOVNPEDLhLpoDei7RjPYPDF43rzCjYw8W6ApvUQpC71hMou8z7QCPetyGb37qSU90O9VO/JC0TxzTBy9KZImPQCpf7og+XG7KMJTPI77lbyefZs8xMv5vJBx/jsA+ro7e10nPTAR17vsRQa9s40RvbQUfjw7ARA9wHcnvWsqnbwHxxA97ccyPd5GjjwMMVC8t0w0PXsxAj2D2bO8PsHwPIApzDqn6Q09OI6wu26k8zxAg228ACBXN47NsTwrfC+9IkH2vMpE5DzA7Cc8YRQUPQTeM7z4kpQ7HTMaPUqh/TxvTR+9nEQtvVCVFryATDA8Ws0GvZqhxjzIfY68WlsJvfnEAz16DPg8OSgYPR9cCz3hHgq98Gmeu/D40rx0m068mlyWPMpHpbz23AS9gpP9vCzJWzw3GRS9GvkVvffrEj03sxu9Jw4fPSUaMj1Fzy29gjsLvVrVwbyHlwM9EGT8u34I+DxaFSK9tIlHvHQuGrx6sdM84IIlPPjjCzztkQC97Q26vNgg+btASGE6UDs3vJINozzQxIa8GBOmu1IbJ72MCSs84lDwvBpG7Twen2S8eL/eu9Bb6bsCyvg8TtXKPABE5DlIJPk7lyAXvQaA9zwyXcI8llEPvfL7AL19Ehs9JCUjvdbF8rzwu/u7JquiPCG37ry4vIc7lMQXvK9D3bwAVaK6KSYWPS/0I73dQha96Ja0uw7W9jy3RYm8YHJjvB8xMz0w62s8EqLiPDJctjwZ9Sy9kLA/u363Fb2Iz+a74JkKvetGvrzcBSG9GRcpvbgAsDsgff68u2UEPX93Fz3o/dC8otXfPAtJzLw05hW9tp6gvGwzUjxGMOw8BvfcPCKW7DzSSMk87ji1POB9ZLvTeZe8NEbuvOpGyzzO7tQ8fI+DPDAfOTtTlLG8cT2/vEsODD0gvny7dl/hvBBcLLsxft68kNsyvYbd3bytXS49mNEHPDSF1Lw+G/08gJH1uSiv/Lto7M682EK5vDy1AL0o2P67HIRPvHqDqTwSZSC9x9wdPTCrZDyE7388J/E0PRFLHD3AO1G6MaECPWBjsjtDJgC94J5tPIC5fDvgjeG8L/svPfezLT1+uNk8cvK0PLoesTxLvcC8D+IPvWBwwzrAGri6QgL2PHEcCj27lhc9VGs+vDZEEL1FA6a88rT6vPgLybx3LAU9GAQ9PL1847yIl7m84HiGPLirrLu2EBu9Y8IKPRNoh7y36Q29klnOPFigQzxQLx+8MtrOPPZp3TyLZQg9uksBvUhTFr0OPL08yGLlO2ULHr08vmo87UMDPV6tjrzikrs84PU1O/LLjbzoZry7iNH5Oy6oDL0dKSU9L7oWPR6Z5TwIUEq8nteBPBrJqjxTYS89z4wxPcHuJL0dK+G81FECvJajuDy6m8a8jBhrPPlLMD1S2s88rsgKvZjCBbyaTp48x86OvILazTzMhAu9IHssvCc/FD25WgO9/MoMvfRhV7zg6X07QS0mPb55tjziA9y8oEc7u9LhvTzaKh29ynndPK6yyjwjbyO90FcgvE4sxzw0O468eBVCvP0aG72TaAY9Rl31PPAwL7vQDjs8kMY4vIF1Kb3ssJu8eoa7PIanmTwQN0s8EHt9PN8UkbwTtwI9KP5bvKim9jtIrqK8hp21PPwhhbxrAte8bRaUvBLSHr162Pi8FH7pvKLP2zxB7iQ9WC6LO6OcgrwA6oI73x8lvb7ni7wcUBq8OMd6vImpwLyFDiA94Eb9OzI8/zzoR448pM95vJDRlbsSLI88kM58O9hExzuTVgq90lBqvLPzMT0qr5Y8UowEvU4WyTwHDQs9GtLQPF9qMD1FnYi85r6nPO5Ktzx97vW85H8kPODR2rrQBbQ7bZQLvUYAbrzA6Bq9PLsVvOS0TLwY3+E7txAzPTINAL0FsqO85/YAPWCCezz+P4e8qOmTPGBpnLtwQL28QBDBOsAmKb33GJa8Nr/JvAAT7Dv6udO8x/cfPcwFK71II248pCtfvDDQPTvECgG8TDI5vNj7B7xgt668SCTzu5wSL7yOK4g8dzkkPcBL/jp2vgy9yLKUO8JOhDwswUY8hK0qvDjju7sPbxY9YjaxPBT/BLz/xiq9iLtLvNCqJr0VKxY9uvZhvGal/ryfsRA9w0QLPZmpAL0m5Nk8wIKVPMA0I73ydak8/kysPJJnjzzZZS29kOkoPOCmF7zonzy8qawIPbglCL0Yuue8u9oTPcCttzoSddC8riSkPP+WFz2A1sS7Wo2rvEjVYDyY0y48Vgr4PEG1ED2M5v+8GujhPGtss7z6TfI8EkHFvLiRHr2AzGY6kqG6vDFwBz1ZGyq9AMi7u7sCorwOSr08GNPzux0FGr0U8AC88kbXPHBxUbxBYoW80hTfPLC3cTx0yBG8WXcHPXM1HT0+FNK8Et4MvQDVvrzW6YI84wfEvAiqzTuW6bw8k5IoPcMcLr0+8Mg8VrSjPCANLbzeDAC91lurPO4D0TwcKTs8Tg8cva1KJT24u2c8nqD9PJ7okbz8Hog8LDqPvC2SCD1AxpM7CywzvQ4j1DzoRNK7eFHgOxJCnryi0K68eHu6u15u8jzsQyU8xpkHva0bG73fky69pn/ivKgHH7wNdwK9JDcvvHuoEL3C7ZY840QcPXhB6zs0jx08w0K4vAdzGT1mao88hlbHPOO+CD2ABlm6mjHJPGGOIj1F1Cw9fhlxvL44vDwL9io9dwXgvO0TGj1RjCg9WFobvGC/jDvxsxG9lZwEvVo95zwFlpW8CjqmPBFTAD2Pyww9QBsPvCGmED0IeJq7CM32vAiXUzxfIiW9s3oUPT2UyLzylOY8FoaTPAC9JDtGVac8/O8MPKjiFb0Bgpa84MGwuhCk/zt4RXA8kRsfvQCoabqxBwA9QJ81OwBqkbwT+Cg9wQcSPeoPEb0+nqw83H8bvNS2G7ww7AM7jBsHvLVPHj2B6tm84iWQPGCMRDwgnBM8aqX9vEqDsbxIYWI8hnAkvYipMLzMQhu8Ox4jPRLnjbw+cqU8XFUbPBAYK7sMyxm8NS8OPWBPKTxcm1S8vEkivUCp9bqwyq67isgwve688TxMT3M8cACruyAynrynJgI9v10rPRBIpztw0iM7FbS3vJHPr7wx0zO9KpepPDIE/jx9xgk91kHAPClxgLx6Ip88bvUHvVweFb0GGLi8dJUyvXEwwbyAKp854IAmva/OxLyrwCY9pVb+vKhB+Dvxng094LzGOzLY9Tyryik9gE2xOwz5mbxOsd888hnuPDY2Ar0yu228YuPVPAiS+Luo95I85WwsPRlSMD3Scey8Hk0gvZd0I73iJfQ8II0lO4eiBb0C9tY8r0r1vCCf4zttoiy9QTsSvQDzYTrd4MO8uQENvSji1rzg0gO75NJMPK+mHr3gss86ICT/u+oFpzx4nRw8OBwZvVZS/TwABkG6/EYxvQXXGD0lZjA9/AUsvDjcqDt0SGk8amWvvLfKGb3IhwO9s964vNTuSbyI5eG7m9obPSQEArzS9OU8f6m9vB0slLy4tZu8oMn+uncMHj0IDla8spsHvZL6pDw3cCk9CzKKvE6txzzA1vk7WzswPTB8S7s4cyg88dYkPYTWOrzMSEE8oG10uyFhlbwA5Sc56Py3O3a5M73gXK87E8+qvPgNbzx2T6c8OmUgvTtNHz1ApTk6MMFbPPq7G72XqvS8UIR4u5p3Kr2jGpq8bn2xPB+Evbw9/SC9Y3mHvNrw/TxfLQ+9NEwqPPXBBD3tVgY9nKgCveYG9Dyes/w8UgmDPDxoUzz739a8GO20u03GrLygwvQ6jYEvPQ5Btbz5aSs907ELPX5p7DxpYhg9Um7QvEyfFDz894M80AcZPIibibs6CSW9Em3EvBgmYjwhKCO9j4SBvFugBz3AYoS6LizOPGbYnDxAGQW88HcjvcVKLz1nbti86IiAu+iNJL2AClK8IzMzPWLz1TxwbNk7sRACPQjwSDxeaQi9pqO0PGD3+juAnS68EChaPGhb5btcNSy8yHa1vJNSDD3wVAW9mcjOvBTAT7wVgwo99OtHvBkxlrxg0by7WXYjvQNoHz041fO8rX8nPTWtHr2KxwK9mm/gPMakrbzhMeS8ZG8SvHBscjxGd+c8rK8kvHu0FL3cFQC8QE8Ouk2sKj38lgu9UGTauxLN4jyS8uU8kALDu+4Fe7wuCuI89gTDPP5SvTzAfK+6SJPTO6zXwbzeQ6g8/jipPHqKybzcQhg8iFAVvWJMGb0yZMC8AMByu6maMz1C2b48kszPvEBoLDwOTjG9lvSkPABEWziGKbs8lu2FPOCuhbzO3LM8fCFMvOe8Bz1vrSs9UOmzO3Dhnruf0A49gCIWvG6B17yzwau8BsD/PJDpYzvwpKO7KMqju3qf8rweC9Q8SLyEO9aj7Tz1ziM9zE7XvE0Iv7xOjJ08EIOdu/P2Ar0YP4g8P8UIPQAKXztAa3C6slUxvTp2zzwD8MG8RMBOvC7n8zwj9Q49dnT8PPHdorxGfFu8uhGTPJ4FLb3y+po8FPoFveZH+DyE08O88GAyvIxdRbxgQNw73lrJvMB+broOR+g8Htz2PKI8EL1MyyK9SE6+u7J8/TwBtTM9YAXOuhrJ/jzgZIK7pDtavHoT0DzgFdi77GJqPOhk9bt84wk8pwEwPdXfID0umee8VuffvGDEarupd7i8QWAOPYPLHL3a57M8dm4svWXbIT3nT8a8JdUwPVgmnbwnag098AiXu1zDV7wO1b08CGwXPI5ADr0mjMY8xpLxvPj9YzyW0N+8sAxjvN7IG72rGKm8+NoJPC4HpjzQ2S+9pHEqPGb9+Lz4S7O8AKr7uc1oID3fpCg9sDmuu/AgyDs9JzM9AODrN4RnCL0FPQI9WevjvKx2zrw0O5u8zzMMPT6uoDxpghs93kr5PNYAYLwYwgS9Z/IbPQ6uoDxagdG8XAEVPACW17qQSPc7Z2qOvMYm8jx1iOa82tAlvdOLIT2G8/Q8lOuMPEBICroWD8u8JHdPPNvQHz1B9S29zsCyPIY1ozz+9u48iBl+PGlpLz3k2Ue8yauZvLz4Erz4CgC80BRhuwlwHj2e7O8864OrvLS/G727OgO9wuKuPIByEL3jDLC8xTgKPQ/Jqby/HxE9MEjbO0BvC70gxwg7NJeXvBZu3bwkYSW8qvLoPBl0BT350OO8jwQlvS/wKz0QRO+7cENTPBhwcLzAZJW6YdQcvW+uDj3ELhM8kKsCOwhfoTsKmyG9GcQzvdEJCb1xdMy8CDf5vIwK0bwOYK88GBIYvRGzlbwPAr+8Zh+xvID2qjuAKHw65oStvKSgMrxovWE8OK+Iu1E0vbyxHCs9WuDQvEb/q7z5Qxa9TlyQvGi8pTsFyAY9LsTWvO2PDD0IC4i8X0XsvJ1mBD1qLqS8uDjIu4TKdjwUG2Y8oCy0u37mEb0MNHo88JDSvEhrlbyAoPm7hKsGvYglSDwKye88XmalPDT/I71cq8S834MzPaLF6rzLb7K8edmXvGy8CjxX0Qk9hQcHPdSl57xwEOU7FvXfPKRU8ryd2hI9LJpJvEA6XrwWMBO9YEUKvfVN3bzhFsS83a0NPZ5miTzK3Kk88x4LPcgjkjuEzVM8DjHWPODWvjqYZtM74Krlu3K90TzewBe9RYASvUDQMjqy7Nc89m2WPFmkHj3qtrk8YH21ukgyFLykJga90L32O///ubwxyBQ9YvarPGYXyDykkC48kuACvRCj2zvgLRe8G58ZPRgbw7tJ1Oi8zTkvPQwM4LyX1yg9gMQSvHnqyrzC97o85ycmvXSQFjzt5TO9cb6DvIB64TkaGLc8Au3KPL9qq7wYNbG7uEYzvJnXF7216jM9Kq31PI3CFL3bhTQ9svKovEB8sztydpw8qJKPPHCij7xNUqC8rRwFPQB61blb1ca8L9QkvXaC9zz4Vky81d8EPeU5IL3XEg09gKHROrbFyTw6idE8Bl0VvTrUAL0A2N47CGUDvXq6tzw09i+9KNeruzgZjjyKYwq9z1YpvQQxCzwwjdw79NsLvJ2Mlrw+Fy690onJPKSkhjzgEei7fogbvabq/LyARMC76OMuvLYUAb1kbi48lP42vFD8AjsIKJU8PqAHvVG4Fj394g09UMh1PKKvyjzLzcG8tidnvMiEZDzwTxG7UI4OO7Gvi7zTVAa94NsrvCPg6LxHQgY9vwYxPfis9rsD2Pq8cUkAPagttrvQVNq70NIqvGCh8zsg8A070Ai4u0Dn2brpgai8AWswvWNR2LzQMPW7aJeOPNhIdjw4r4s7f/AkPVpsCr3sBXs8XVMTPd/HFj0+Gog8wAPXu8s6Jz1J/SM9TLsIvc10Jj2ApKu5ELqDO0qJtjwwau68EI0yPFgbOryome67lwIgvX0PmLx3tzE9yEEsPAJL6zyYz0Y8PYzwvFytHrwGcxm9TxfkvBK2mzxITvC7hC9JPOvnML2OpZU82EVfPCKi1DzAwUQ6mL9CPKa5XbwNWyU9UHRjPJDiiDsjjBA9aneoPNKI5Tz28R29yMdLPFJe/bwDMYm80mGYPITVMr06iNU83tjnPNK30zw5qwS9B/MSPS3IMD0wpkO8FJYCvZoDrzxk9M28AIEuugCp7TkhkCU9QLMEveARdDsBRc28Tz4RPXyehrxjmS89sw8wPRCXdrsmOLu8xYIfPboHgjwKEJo8OrxjvOWgDD3d6wM9EuqoPAJo3DxETIs8MAM4u6a8nTyACcQ641ImvSm4tLzW4AO9gGaTu+gm97yuNh+9kB16O2qrzjx9vB29DgnAPDJCyTyYi/O7SfuSvEXPHb2PYDC9EJOpO2iIC71kYUc8tkzcPIIEpDxOkbk8+PFVPAbfuDwg7ES7iPyru2i+kjtI6Xg8Ze4RPam1MT3G9gm92PHru43kIz2Q4AC9Q9D5vOgdujshTIy8AHAjtx6ezzy08f28Fi7fPJQxFb0YOyu9qIDLvJ5Y3DzH6y09MNsTPFy8iryM6Sk8rQUYPUhsjLxmYxy90MneOyZqzzzIr+07JvioPBPJv7zcNBq9ZHgPvJO/tLwkbYI8kAcVuwCXJrmMcy295qO0PNjNF728czS9GaQAPRL2rDyYmng8SqPAPFrQAL1f+CA9KgSBPCBENL12aLI8+ZMRvcSsCL2JaQE9hvLZPAAmuznZ9Lm8QdIJPXgJ2Lv4OYe8bGkcvdB/eLzJtvC8zlu/vHl+AT2FDc+83MLgvBWWj7wc9AM82oTePCDmN7syStk8S18IPQ0vJL3kK4o8AGNnuqxCdDwyEuA8aABlPPx+8bxWlWO8KB7jOxS/L7zIiqC8EIAfvJxvJ70oNCu9Ir56vMEnFj3Y8WC8jryoPBSuT7xUWyG94EFdPMsTxbxPzKS8QMGtOujvZTyfKAc9+OcyPGxe5bw9b6y8gBaoOgD1QzoIpOQ7tE1+PO3MHL0Aqns6EAlCvHw/BDzYQFk8oFsFuxylNL1/iyM9H6IKPcT+GjyUnTK9N1IiPfNiHr2comk8ICEQvVMkB72MGtu8CEXcO/oU5rx+VNI8aEO7u4wfZDw3I9i8rGnevJTTNDwwgpc7d3OBvAgJGryv/u28oy0zvazNEryXBgu95GknvfyyIzxA2ag6vdYcPRWuCT3I3FI861IjvR4zz7xKjL884J/7OyLN9jzA03q6QteUPMAbMrpcY+q8PxUhPaQmDTwUUUy8jrjhPMBZbTsyZb28sLWBPGRgDzyE2ou86CcbvAiKPjz8F9u8CwE0PfAO9DsNIRy98O1cvOhT8LsovD28hMhwPHGTwrx24rI8OKHCu0fBBj393Qo9RQ4DPfxefrxipXK8KL8YvDWRKL3GLMg8GJtPvDq4iDyzIxs9gM8CvKDCGr07tCE9UBWPu0mFHD3ZFgM9PEgdvZt7FD2O3vO8rtFjvPxXDb34KTg8fVKNvB8E37zI/ZC8/2QlPfPTHr00PAw8TV0yPbxrDTxhvye9VSMDPfTLFDz5UbC86VkZPdJT4zzIQXg8/grbvHYAvzxMPCK8H/nCvHDpLb2YYec7lvHvPODEnzqLRQm9arfjPMLVDL3Yp5s7YM8yvT2CDT1vsbC8oIwOO0+XubyEOZq81misPPDdGDuSDmK8wC6kutgR5zutaq68ANXkOsLv1jwFahk94by2vKCz27x49O47+LDtO5M1Fz2w/9a7FCkEvWgXCbxIuuS7/mqQPNpmnDw+rR+9oM1AvCKdBL1ewuW8wLziOnaYrLwbsAO9Tq25PBhhpzuCDJU8GLcIvDazzTxtLLu8KKibuzj5EL0kPQQ8JqfjPJRvcrxQMjU8sqfGPM7/+jwG4SK999gXPZBelDyIz4q7/jQivUDwFDwKhOa8QGLxvPImqDykaRw8ADzOu+e0Mj1rm+y82NX2O3AYFb2MNjS8EPlivDbkxjx4DZE8BgbWvHTPRjxFd4u8SEdSPEUXDD3gmuI7rNhVvHAEhzv+NR29APLnujHpzrxQcsE7O6QuvVUJEz3Q8YI7LxIUPb68oTxd6bi8w8UTPWgSSTxO6J88tdIDPcP0x7wE2Fs8W0MMPXgkmTsaOuc81BAKveuSx7wQcnE78GGhvKnKJj1+deg8P1a9vO7ZpjwwE2s77knkPKYoIr2sd+u86cCwvFD9Gr3IyFC8dICdvD6sA72mYIc8xGKZvKmIDr0Rzw+9CmICvT482zzIFks8Oxq9vNhusrvpLR690ggYvVcxDz2PlzQ9P0YJvdnQ5ry5+py8XoEjvZu5t7zQuhg89AAFPKBTgTxkNhC88PWLu0QPBDxhVgg9wO9OvK4gsTxwpO67SAwiPFWGGj0cD0g8ADC9uFBdrzuTUSU9o4s0vWs/j7y43Qy8wFKUPPz4U7wKvtQ8O1wAvT6JsjwYZQG9AE4+OaB8Er2BFjM9rDXyvI5Kpzzv7RA9ChKhPHx6TbyQnOk77tyqPBDDbLtHfiU9GvWPvNwzNrxzlCq9vzARvf72iDxg2bi6cEuauyUEJ73HqwI9eYiPvIIy9bxAIUe8aX0lPYDCQjxHQRY9OFW0Oz+sHr3OZvo8u9kRPWmclryFYjM9gCm6uedSET0YkCk8QMoSOl4xBb18Dno8FePQvCzfPzy1pSs9IqC+PHjQtLwIqWm8ZvzEPPa6Hr2xvC29wO7du6XaBj2EA7m88m12vHDW6LxylrQ8xPTXvHl237xEGXw8UqnAPJ5o2Dw7nyC9uhgQvQz3WTzdCRA9TAUYPBZjrTzociS8d54uPTKSC73eb0w8NUKcPJQuzDzsidS8h925vP2Jyjxk3T69CqAjvEY8uTykAxa9kIcevezV2LuQ1AO9xw1kvB8wJ719pTu9BvA5vcQHB73Su6O8avEfvY+rkrxWhkA8+ykMvB4BBb27u1G9k5LnvAOKpDmFoSu9AGZ7vAgf5ju++ca8rLMgvUYIjDwi+xm9g3UnvNZHl7zwR2m9nG4rvd+/Y7u6zMm8Z4nDvPRnubwWRS88auNRvYt9M71MJEI8CeiQOQJq3Ly9AVO91FXuO4zoNLxYMgC7caDMOzSmwryaXo+8lCt2vWBzRDzHsnG9eHNbvMjMqjzIyDC9flm6O7T+l7zUdEC9BzPQuxTxGL3waD29r/whvMmnjDpqy4A8AqnLPNsSjbzL7Ho8dr7qvJ6EO7y024O7PqxwPHAnozy92bm8TJqYPDAGKzsi5/C8EsCqvF1BBj1u2xS91o+SPGEthLwW93m8UFITO1AddrxkUxk8WkygPGljMD1IJw29RL9LvMpNqzx7wMw8YkVgvHqd6LuhnVy7ymWEPEuxiTzHHEW9iwJ2vZtLUzxQjSS9uGoEvTsWCbyN3R482UQ0PKKnrbx3wPq88OJGvQiadr3ruT+708N6urNfA73Sug29aviuO8qKvDsuuKU8eauXPAMoQL0CDFc7zUHqurkmNb253YI7s2GkO+GeRjxpWUq9+492vdppITz9Lpm8XNCMvIY9tbyJ/nM8FfeZuyl4p7xVpYs8JE0XvSIpsLzGOH08+S1AvYv2Pb2yzGC9LjuOvDCq+7t3J3G6+8lvPGypyDxmZRa9ZtHBvGRMPL117V29rDsgvYCtazzEcs68eO1ZvZ3Pzru2Ww+8FV73u/CMHbwG73W91hMIPKjR2jx05386+IpFvTuF/7zXJ1S9wodtvT07iTw79Ik80CxaveFOVbw25Sy9E+RUPCCagzyVpAE8DTEFvV9gsjxdB2C9Fi5XvbdYBDzpu6A8SPg6vTAEhzzg1r+8rsYCvbH8z7w0uv+8F7A6vaqwfDxUqFO9HQDdPKo4Lb1T+EQ834kivTkmKL0UyTu6v3FPvU8QLb3R2c+8Ee08vVijrDvxpge86oNtvcaLQzwGQue87/ZmvdrwXLyJ61i9bJKevKLTU724Wm08puunPLPirLz5YI08pMbQu1TanrxgnqE81B0LvXpVbr1BJTu8cfncvBATpDu3FAI9/5guveEeLr3QtTk7AAYBPJjodzzbShU9c9mqvM1zLT3sGia90lywPPtHu7yCA7E8MOVrPF2iJj1Y5Y85OMU9vcj+XjspDYW7Gt7EvKWjw7sCIAs8fWCYvBVWobwTvWC9lIOGvPl7RTtD71M8op3VPLoAzjwFQ4o8sIrjPJr5jjxSq0+9AGoSPLsqNL2Z9yS8xZcWvTqNozrfxxy9qtLqO8aO1rw8dUu8AJylvG4wvDzJmHG9ytTCvBRO6joNPBu9YJ3XPJPZf7wxjVK9Bt49vWYNwzz6W1S9E2orO00WRr3rLDk8BU4dPOCQ+rwmPXO9kDVVvEJLVroZpIC8wg3LvA6B8bvijLU7BeX2vM5bsLxuAFW8nIOFvI54Y7xUPUo8qXKYvH8fvry6XCY8mTOEPPiv4Ltjsgg9lFJ9vEL5abwcGVy9+vjCvLDv+bzy02M77VLcPOOagrzgGwW86/W2PGRvjDxVdeO8g3kzvXEILr287CO9IRuwvKqWV72gbbq80t8juwMdAb3xd7Q8MBMBPNm2IL06t3q8Opw3vUeGBr1Jtlq9MZ11vRkrUb2D6lA87qGEvNt6W7zP0OA8DveEvG1akjypNMe85IljvfIrFb1HJxu7jQ91u/Qexzy1TNc7lUGTvC3+vTypKG29kUFzvVHGQb1WZOS80qW5vMTmibzFG668+EiNu3AEabyMZDG7R4IUvSU4YL0xIB69+CjZO4/CeDtxMQs8tNpYvD3mxzzXS1s8MOYQvfDe8ryPLam8V8oKu+jUKjtweBK8HALqvJR847xiRVq9hv0Zu+4BajysUTQ8RMHQuw6dCr07LbG8U6mZvE8Mv7z93C+9lNcavMK+zLryLUy8b73FvJTkZ7wh5hE74f2zPMM7CL11AQy9mkBuvXoyRL2Rzxe9FDfVvJsRCLwcGke7SAYPveZvzLzpuwK9FdJnPI28hTzEy7m8cArjvL0l3zvPJ6e8OEyRPGvTjjuOpiS9/t2qPOePMLyVlvi6kxvSu8X4CTxpXGu9YyePPFrim7u4t5s8Rpo/PD7oWjxplqw8tHqXvBsZ1bwt0oI8znsuuRBg+rtaE9u8YQD6O51W27zK8iS9ikLGu8oKqDxZXk29S2OlO34ti7yVqwm8p0JEutb5br2ou1y9DQNsPD2pDr0lgka8lolyu5DeZb1hQ1+99rVNPC7lOTxBG0q9dAzLvNtsmjsqBcQ8g7RavY7Aozxx9Se9WzkuvSMcIL0/V4w8xoU5PFBfADwuKzC9lp/HvIQiMr1DLxq9br2VvDgifzxAJd46BxwiPaYq8TwyhWy8+FubO+W+IL2JgJq8IT6IvNzggrulXCE84yXXPHIMOD0qRCe9hr5rO5eHD71e3tk8mh3CPLgbzLvKtUq9kHw+vbTyizwS6yW8JOM3O62rtrxwFaC809oDPGg4Dzvl8wO9j/rrvAYXJb2bsoA8BH45vUDCI7w5koe8msrPu8zGuzwAZhW9Ypeyu8dPQL2hVus6F8rwvM1Qg7x09C+9SrKIvBO5xLuUSBa9BozqvEcK0TsVq449uG9PPQz44bz2chU9gc9ePKKzNLxizZC8oRgoPbSITLx4Nd+7ISnWu+AbCryPJJy7WBwFvfKFFb3BxkY93jtCPFG1Ab0PA8C715BVPdAr+bxMe/u7h++MvNo8y7tImyY9wbHCvGMQLD2VPyA9KB/vPEd9ozt+ThY8/+H7vENRAj2oZxg9BrKMvLrkEz18pt88v/9AvDk197wM7Vw94Qjcu6zxybyTaQG9XBgaPdUwRrsc3AW8kJi+PBp3Gj1ZUeY84RsZPSUzHT199Ka8ciI/PO3QlDq9IwS9XcgrPCOinzt3vkM8ibkAvLZ6CD3hbCE9Z7kQvFKborxeUDM9XmGnO4pUjjzLpIi85F6HPPuKFzzOCIA8BFoDPAuIhzwVTlw9ILmfuUOh4Dzesrk8mWoVPTrdzzx2AOM8X4cePNCyAb0hEOc81txbvOVLFb0wfh486VqNvGDf+rrgxjo9DU/ovNiW3bzYN5E8P14cvcbuvbwkTiI9Ct9ePXtPkjuSqio92ia7ugw+Rj3LsTU9LksoPCiWcbxvDVE8tcexOkaaDTx2jkQ9xmGLu2qyAD1yfJw8vZiAPJUifj1MBCW7pqliPUGkNz3ROjs90RAvPJ3hcLtK1ue6OqP9PJdQ9rsKRiA9Cz/qvBwIMD2EZPs8PflYO0jPtjyWP3m9dxgdvDEXjbz8amI6o/e/vHZ/z7zEBUW8ArT+O75oWr27Fgs9Q0r6PKmUXb3AaQm9IO6qPBcdzbwlHKQ8B2UdO2fDZbwDeRY9v2HVvNuiQjtv/uW8tXmZvJwVwzyWf567QqMOvTf4ED1IH0C8zxUavG72Przz0JW8s2eouyviobwqeZw9c3ZwPQT+g7tDUPi7X/ecO2B6vbyWvFY9JslzPZ92nDw8dX89PPBOvD0HhjxabFc9irEVPUJ0JT2EWEw9psR8PBVPFj3zRVM9l8Y2PQuYQjyn58U7QIyXvFKl2DwkT4u8tbWdPA5EojssJYg8SL2vvH2jED2SUCE9XrVRPYUmGrzjDc27GHKvPBa3qLwetec8sQTNvJi6Ej1QO0c95DjvvDtT4TzrPFI9HSocPRp93zygr647Rb4Wvb969rs7rss8Wkc9uxHDnDyjnxG9s6E0PQCwojxlviA7CnDtu9evqzwQNKq8Z4g/PGFqFD0gpeu8QeogvARnOD0z8AE97AshvFZcUTvXiH8813WxvJpZuTwVlcC83t0YvOxPJjwIKAI9cv/cPKfKK7xoL/48KHcbvGC44DuPcxU7ol84vZMy2bt4U7I8MLyyPEwEZLx3GPC63X8Gve8xcDs/bEq8ZTaUvPQBrTzft1W90UQtvNwESj0kLHi8HR8jvEKbv7yp3zg9YIXavF1GGLxHsgO8veCCPOJPaLxdRfk88f+UvHHvJz0Q2ou6MKIwPUP9LLv+jqO85tP5PDouRT1Im3i8QePsO1w2Rj2cF+C8ylLYPApqzbuOIM86Pxc+PNa7WT2/qjw9CFxXPenvXD1CjFQ9HUCPvCLJ9Ty4Dqk8HIoDPH/07Dw8htu7YpLGO5tBML3XnDg9GFfQPC9y9jyDZxE70QMtPYlktbucJDc9mrkYvRMfJzySThs9ZnWIuwnxFr3ytxq9U3KBPS80LbyGX+c8Prvfu/Ghnju9LpU8pRPSOyelnDpsk6i8Q2MuvNo5pLxS5Co9okJvPBfypju2TTw8LwUNvWCeNz1Epum8Tiv5u2PgFT2iscK8zvFAPT+qIz3al7g8w4ayPASKxbxX2kY8Uhj+PMj6Hz3jn9674t18vPZGU7xSvA89NphDPXUf+zzhx7o8yxasvGgiE7zQ86I8dApxvNP5Uz3N0QQ8ahsoPdpMLzzuhuI8xfWNvLwqQD3GYyY8KwAivGG50Dy8IRA9ToI0vPLd7TxLf8A7x+0+PLGecDufI7u7ucLSPGXxc7yXBHc8nbxyPedirbwwLjK7fxSiPW52gT3EMcS7CF/UPLvDk7x7KEc7/5p6PQ/JKj2wXYy8pwMMPdEwGj3vjHw86LxjvOH+FD1dXxc8gBIwPCIGIz2RCuI88OGRvHF2pryGdSO8m0CTvNsAST0WYaM8jPs+PQhaPT3eo9I7gVE/PWqkwbt9Wxk9laY1PROm7jydrgE9Pc5MPEPLVjwIEGE8j5TCO6MrUbzSFRY9kxssPfu6Gz1nOZW8VgnjOkANJLrAcIc746YDPZ62/Tz+BT689ZCGvIIvLD1s2EI9Wtk/PSOIHjxIDHw8gdfZPKxUIj3cHte8bHzxPIS9y7wmxRw9l0C3PKLIJT3cZhI7TykRPehcbz1WqVg9ZuaaPOQtLbzU7lI87qapvHFYNj0s0768VjYHPAkOxTyRZYM7ewVJPchkkDv8kjG8g8bUvACcpbg47428WaMqu+DCiDxGBRk976YePaaeIT3kB2s8xUvlvKXT27yLKQE9CoZLOyHXJ7wXLKA7KI8RvReQ2rz7RLG72XwiPaBhPDtwBlm84DsVPGrH1jyAJ9Q59kSsPPAspztY8di7560LPKm5T71wgsE8tbqgvARwLz1zXOg82jgAPUrlBT1a6Nq8KA89PabNgT2nvaK8N2x/vB77fDxgvy098YLHO447Lb3fyjo9Nke6PL15mDycNhK8hM5iPdMXIDmN2CU9dQctvLYPdj2utFM9DdaBu6nLFbzfaGa8bXHhu8x4sTzcqie8ykQDPdRosTxjtgm8QYAavZHBYb0Zzwu9vt9+vGdVlbwoC567rv5vO+Ez5bzVwpm8D2PBvMmTFr1k+qo8ocjSO9ln2Dt7BR69Q3alPJ4jEL1Apx087s1ZvS0T0TvPS3S9uxRvvZHPaTyb0uK8umGZPHS8NL0Aa608aP4vvTX+Srvw9WK5D2f+O280E72PhFG9hlYWOgjbnryPObk767KpvDhMAL2i2MA8tSYnvbyUmbz2K1C932lnPDbSkjzWfZc8OLh0POIq8bs0hV67E1cTvRj4UDnjzSY7v/RhvZIFmTwTwLI8FrmQPE23Vb3VxwK86yF2PFXgcr34Q6Y8O2gLvXpex7wYbIm8jkOIvDcaTr1STKk8l9sNvG7d1TxJTrm8q5Buvbi8vrz63Hq9yQGevOjkf7z5y/m8I86uvKHB4bst2J48NAiWu2AELb1UjZQ8YTPWvAiI2rv4qPi6QXwVPbjkyTskq1o8COoDvXj7Vjx6zAs8/KYCPOCrhryAkzE8X/ogvb3WObxMVEC83ZAZvN4MSzxHz/e8sh9lvUoeOr20AT08mSGBPEFjZb3hGGu8eiD5O7jm07zPiSG9Skf6vGyq1DwQFbw7V1QYvTWHirw6Z2q9gcVjvBDL6Lx06Ei9KRJQPN0fsbzxbRa9XdjTvNmCeDvdzmS7KiGou9MZAr3fbdg8pfzWvJDwXrtq2GO8jZQBvArvzTuNXKq80AGlPOdkb7yTHU69pgj+vGOcZr2f4129v47GO+lTibykKeo6jZapOwLrzTxR6RO91RuPvFUCQr2SZgy8VpZLvWod9rtF0DK9vYlruyLv4rxlDc87EE0yvcIDbzueK2k7S9G2PABGLr15zjC8uXQOveqhPr24lAq96sxEu4Xj0Lwln4C89ZV1vV/wdLq5+FK9q3hAPFizGDyvVgS8A0HDPKs9Brwx32k8I2g9vLrjLDyxD6g7G44zvScfiryEzsW8MZZovR1WW7xG2xi7Plh2O7OtozyOmwK9ZQczvXX1pTzAg348JJ7RvIwlDDvZaRM7hn2kPMPGtbuVyRy8ODXDPJSRHr0uW748zYz5O4zYpLxA5aa8xPYSvYg0fDwGI3W8yKhoPPeDCb0HwUa8GXpAvWFDXL2bD5e7WfRVvap6oLzzNCo86EVFOzkYiLzqIFO962AgvTuPSr1Qk9U8AJ5mPN1cX73VHzm8O7ktvSUT0DxH33q8xirvvJwQcTzgMHS8hHnrvCrf2zxdfQY9iJ1avJrNBb2eaqS8sHB8u4ikaTwg56W6LGVdvAwGIbwI9wa9lxSDvEv9mzx6xG68lN3OPKsVBj0Y3G88p/ievIFDnbxkWna9sSxXPO/jFr26DbW719CuOxRqqjyRSv67LmFlPCLXOL3x14I8CuQRvL8Uirx+fKo7LcRmvX7VyrxsU0e8+48IvSyFCLwP1Tw8uqxDvcQ12rzKxni9uQl8vOUDKL34/1m9qBdSvdjcGb1IvGo9/J12vbMfVrsdfHe99W0WuwM5G72rn9E7UBpfvMUWfLws+f+7BKW+PJ6K47zOHdS8LJsmvSXqkLsf8UO9B2Q+PXSCS71MNTA8ayZTPMA8HruZrxw8cCCDPLg/Fbx6gDC9BMw3PPP22TuRFRs9oATxu6uxF70moo+8AAdJPB7pjzybQi48tKtcPG+UkrwJOlO9gTNovYAbNTxDvAK9gqT8vHJnyLzMRmq8eUWRPLjCwrjLffy7vYc0vfzfArvWY9q7b++hvJ6TtjzzqAG9WhcAvAz5Q73+1he9lPiDvFyycL2qmXO9W3ZbvTaTQrsZNbe7tb8bvdnG+rp0FWa9qx2EvGeca7yXDCe9Vu0XO4yDgTybMxI8IDMqvAUGIrvbX3285DlxPIAPar37iFy9MkX3O4B5A7t2Ji+8SVq/PN5n+jxN98a8ucaqO2/mLz1UqCy923QuvfLvBru56ZM8ZuFavIRgRrtGhF+9RrS5OiO2iTzUszO8sI8BvHvRJT0SNRa9/SyDvHkDkrwNSS89s7o9vSU01zyuLVo9/KQRvUqguDxlp6W8cVCsPCPgcjzTZ0i9WqWjPNCQb7yPEEW9MOYQvSmzhDyiIyA8XtSmvA/cRzye3ES9bEZvvX3GvLzjNgC9adfRPOd2czzA1my9o5THvIGonDsiGkS8t3TSOViTFL1He/a86zxIvbwpTr0OU9c8nlTCOwApVbr7HPm8pqRevGr6obwmgFi8TcNWvWCZWL1/lL28qW3VvIegKTy65yy9wy9hvWVJ/Tsi0q48/MnVOnc/+bxMKgO7uXgBPB6MlzzpBri6qngrvQUTvTwpaA69lt4RvRtsoDyP8OW76647vcYDaLz1F247HHKIPAZ8pjouND67RGVevb/r6bx8abE8Ep+zvP3vOTwOGBi8m/HQvM6gUrtE3IG8INsgvaIHi7xTiPO6YkkXvWBA1zxHiDu9xF6XN88ZfbsBXHa8Ykr1vKmka700KSQ5tK2UPIXkATwJRyI8TUBBPT7FpbxojR28YlZbvVrO2zxepCC9YAYsvRNpLD2uxCW9z+GLPCS8NTyB77O8tL/3u+s82zuKE0y9FIzbvOXUez1OHrW8ECilvNCrKb0zwKm8p/0YPTluHL24y0+9JOWPPP1hkzqI7gE9KNGkPEEazjxHgeK8B5MyPJHLHL1BYjW9BuAXPKa5Vr3yaie8osrpvD2CHb0qHdA8vCtSPK3hSryZtpa8JXoSvQuiTr2DXiu9dEMLvTitPDsVeoY9hUMBvfx6YLxl3e08518ovbKw9DwqLjK95sC8PHGDCz3d1SW8ldiGPKdgojwhfPQ7I6IXPQI45jtbijI8o8OkvFuo5jvAoTA9Ko2UvNs+qLt2WPc84T+2uzjKNz0cI/O8oz7IusaBMD0oz2y8W+3QPHMCLzuJcoM8DhkLPdr82rvZIzY8+AtxvBn7EL1KlPG8GBsAvQA4zbycEGS5vfiCPFePJL0XwYK9gWPEPMGKPr0et2K9OJfHvDRJX73dUCG9uE8NvWgiNztQc468UfwXPWiQITsPECU9oTnnvIzDM72Lbe46WRfTPDinIj0XWrG8z18ZOjTu1Tz9T488WOGau1UQQD2umr+7MUYqveEJ1zu66wQ9C6MKvU+o2TyDsRw9DcE6vMyfsjt0wAa9jsMHvXB5HD0Wgqu7DwLMOhgWAL3SQrY8qNsqvRBEFTscQiS8PQMLPQBGyjoSlYg88nn3PABG6jtgWXK7SJEevIB7bLsLXpq88HB3uwWsI70czs888WdbvEl8sjxHcvM86dWEPCaPFD0gaKu76MoPO7E5N7wNG9+8UmEDPcyvWDzmk9a8XpD6u47BDz1sTjw8sEQRvcDWdj0Dy4C8NWL3PJaYPzwIINu8dOlEOk9MUj2x3G+81+cHvYaPvjl3Fvq8srFxvFBmTj2I3rw8ueG/O20HfTwIQaA8tgHePBELZbz+Mr68MxHYPEvaFD0mEDw7hn+3vOOCBD2qmPk8wu/JuycQFj2r7zc8nSEFvR46hLyWETc6yKp3O2gWzDx4SMS8ezmMPDn4Ur1Rh0+7jURcve0uL7yzwQ+8hpBjvRdJaTs88jS9OJvPuudpgLxomgO8cgANPEmL3rySNhE7Evg7PNoIfrzKwE48yooBvZwDaj3cOEk85ofWPKsSjDwRcju96I2Zu6w5ybrbDfU8+huHvV5LkDw9eCa9s8m0vLbWtry/dCE9RgEmugz917ykRKq7aJwWvSJ/A71FPMM83ZuXPH8yTTyevn88GyUtPXgYDT3oOR28g2sOvbecrbq+rE29owYbvcxV5bwuvmI8i9+HPAlYRjs8mEs74Mq/vIn65jzg81S9XodqvdYkBb1WBly8ZAMpvVc1Q7xLQd68ftVJu4esCzyntq28+9wIPDOxtjxl1Em9EYjNPG3QlbyFSW+87qD+PLmNqrz8vUi9btzvvILjgTy9yAE9o0poPMVAgTv3S7k8jB8TPeRKrDpDJW28LV5zvRmAej1DBuM7zJWSOyoLFr3t4di8p2mDvWZx+bylxpO7cfhQuV5Tv7zyIqa8SOj0PAXtND36gwE9U40VPTfWN7zH7NU63woDu93gP720eAA6umcpPMweAb22hBG8Tf0NvRLmGD22gEg9kLcoPTWsRD166yK9AMgmPeH6kzxiLio9ltoCvVKn2Dv7Hke8aVcFvTsclLyCVz09xOKsvO9QZ70kZCO9n8ZmPGNKtbxEEoA8V0JhvV8DMLzuTnU8U2YLvSacKL00r807LphRu+clM7tnmXe9wCptPCSJI73xH1O8yhBkPFv+Mb1uCVS9wNeYvIqJGb3U+XW7O66CvReNEb3gk+U89JzSPJgnn7zDBLE8FMpXO2w6nLxpJbG8/0pRPYAPzzzP1hc9tcaYu59B5ryb1Wm7ZuI3PYBhKbyJlJI8SDqPvK6b5Dz02gg91jR3POZekD36TIg8tHYBvB24Vb3MCxu84gVGvAkvGL1nyw+9mfUNvZ3qK73KMju9JuKgOw7fZ72l9Os7Hc0vPCcu4bwaiSi9BeVTPPnNFL0k6+u7g+wSPNNwlrxOkAa9vYkIvZn5TD1bDZA9k6c9PaJZgL2uAsu8qSu9vLiepTwoYJI8SQrtPNqMv7wqmW86pwshvRQ9Dj19mNU80v6svOfARrxcQQQ9Jty4vLrMUL21O9i8+5RhPEymozyjAVq9kCrHPPZXXzzkNx48CcLyvBIOLr3YZgg9SxBkvWeDi73KoIQ8V4hMvUUobT31xFw9NNflPIZZ1DzroMe8wloCvZzzGLxiaMS8qAPFPB0vrDy98/i8wDbuO/63FTtRHqS7PMF1vEZkJz1ffAu9YnsSPLbc57y9WWW7SKwXvSspFD1JcFw8RVkivWdYAr0ZWlQ9+OE1vYAiz7vH31e91ERUvWRfvLyqfPi8S5Y+vbIcYTh3s/28oVwKPLaTBT3MLkI7XMAKPWI5rbyX+xg8AE0FPZpVmjrVQ1q8+7sWPLvonTyOQgG8fJptvBocLbzNH0q8BXKhvDV/tbzs+P+56AW/vA58FjxhWbU8uQ3+vItWBL0RkI68+30GvRDCiDxd+te74unuvGF+JL0EddI8Z7wKPKQ0GjvdRne9npkrvGBW5byPGU+7lE8yPMYoHrwBIwq9Ea+1ugRfVDxfZwI9fkDkOxOJ0jz4Pig8iFYoPfunbryUuC09U9k1PBOPRD0ZPHC8LVccPUavFD11UEI8YMyMPKmbIj1cFXG8GcswPdxxsrxH8gk9P/8KPRPOIz2vxq28QJAfOjM7LT15zYK8SmODPG0XiLyrvQM9i/IzvXWT5byv+E88+6A9PKGjfTyLYRU8YgBEvCWLqTx/sDs9O0DivFzyIDw2PAU8jfMGvW8cn7uS1+28yoYAPJpRVDvyPOO8WpwXvc70nTy2Qya9/eG1O5L9OL1iaCG9QNNmvMUVMT23zJS8tlkWPQC28rjOsuc811pKPK6oC70AV3A8EJobPUJz3Tzt7DE9+DEWvKiSD7zHHzI9EoL7vJDJL7x+z/A8b3AHPYBbsTpgMjk85GVSPOYprjzU3AG8Ez60vJZSzTxae/Q8uieOvNLEpLwq3qk8XsTZPC4kuDx/QBg9IBofvf6PwTw6Tea8S4kXvQaMvTwoIdY7gIKlu1yUbzxC4Sq9UF01u5j5jDxCLAK9aNsjvUi5IbyjiRC9GB2uu+4JBb3GOqG8zsHyvBinCLzAM5q70HwRO+JZMb1qijO9op/0PG0hxbzF3uq8gP6wObDU5rs+E+Q8apWTPE8KzLzIvbW7TC8VPPS0ArzuEA29hk4OvWEOMr2YIBW9DqwuvWA+RzzAX8u6AQ62vChtKTxQMmm7520QPck1BD0Aswi8LoTZPAPEMb1zCCY9oBiUO/IB/rz7dyC9u20dPVxI2LzZHiM9EwkzPVl6Er0NES898LFcvIVzFb2Qf348fMAoPMDI2Lu4Ea+7IBb3vKwpAL2nium8aV8MvfNcKT3AWx48YjcivT6y4LzKMPc8gUMdvXcOAb1dlDA9iG4Pvf/AHT2cLy88zt8fvd7z/Lya1h292D6mu+m4Lz2khzu8OGK2u5QIF7w6Xtc8UuGHvJetBD0AmJ+7RXMDPa7J6TxbczM9umh/vNi5wrwkCn48FvkYvdCGvjt7jiC9kL4YuwCO7TqKbok8cGe5O/LLKr3etIw8hDdFvMQsOTwgvvq6DRwTPSBTWrvFBLy8A/kevUzOC7y8eRe9HItuPC95Gj2Doay8tSwxPWt7Jr187Bu956k0vYAm4LyYoX08wnGaPDK2lDwIVfy7QImpO4Az2zqwL2s7RETovCjD3LsQ4h+9q9yOvHZeZLyF2DE9VtoGveDTEjv0ky294GyoOhGyEj0y4ZQ8bhHyPEFdMD22e7o8PZoKPbggwbuQaSY8XSgovcdXBz3r1ea8CpKlPMwXOrx8kLu8q5gBPcQzIb3AQia8jHZOvNRxJzxQU0G8KgcSvYdfkbxMtsK8wINku63+IT1OKYM8nvqvPDbj5TxU8W882HWvu784t7zHmcG8oDODO51OCj0WX7w8sxQfvVjLvbuyG7o88Pn7O0E4KD0o4iq8WCqZO048oDxrRSE9iX8oPR2cBT1C9648xB4SvfUZDz1AYCq8RHobvW577zxEKCO9snBovCas/zx5hoK8YIqSPE1oGL2oUoI8yuMPvfzeWTwqxKI8IEEKPMBWp7wAwq44/68DvXa0rDzi/Qq9CvaqPC53I707XDA9FprXPFoTCb3xiBo9iGICvHb61TwQRZ875YITveX3KT3o6HQ8dCl+PMBY4rvA/L28vU8cPXgxbbw+e5C8TayxvN4esbx4MIW7koaBPKDytbyUDAK8NY+SvFo1sjwQR387OA/JvLDykrtrbBu9xgHSPIwlLTw9SdG8MPr6O9Jq9TyPvSg9PkGNPLsTLL2ZOCK9sht/vFrlrDzhk5S8YB+SO7vPMD1Lsye9OF8evVD1RDumr6M8yNdIvCRUAjzzf5i8APiUuwYwtzwYxIi7SIx3PMC5qjvGEBa9QP3aO192Hb0rvQY9Wc8xveiKG72tP4y8VJsovM28Mr3bRzA9SCdhPHjGvzsLhQs92QExvfUiJj2uuwq9SlSjPHitizyIyBO9wLY/Otd2Iz3wKSQ8iIB6vM/NzbwiAc+8JCIhvVa8oTxxDYG8KQsPPU+sLL2md/s8qrLAvPx1urwgi6+7aWIZPYAhDLsdyZy8RwcOPTCFaTvIaAK8yIyMu9AkGb2QA3w7rONdPJzxI73JhA49IAZwPHdhM71s3mG8+KHvOyJjtzw6Wsw8xQEyPeJO6zwEMkE8XME8PDQvE7z+sQG9vKS7vLjHSDyoRGc8A/4xPZCGEjygec27NqgCvWVLD73Q6lK8hhkgvci86rwyKcY8YC38upBA7bwyrpw8l/2dvIaeF72GGYC8DRmhvHIMc7zuPuo80O2ru1An4byg1h27kr/yvCSMOLwQ5V47llHWPHZTwjzt5t+8sj+TPLKWzjyykPA8TGh+PE1TET1bexY93FURvGiqz7v5pic90G4du6O0JT2Tiig9oPxbO1yGHryib9Q8oYwJvZgB2rxe2g+9Jhf6PPWuqLwITZm7xjfaPIrDojxWpt48DxjTvP+CHz2astE8aIWLu1/NGz3gOuA7xl72PO7r/jzQUlS8vM4yvTXWKr0nZOS8fZYxPUVzFz1A8QK7EDuFvJzOCL2m6wC9/7AvPUizZjyU0JW8OGn3vLHjCT0JBws91L5LvNbuoLzvqg094Ly6uhsJND12g3u81vYhvVRjFLzGOiq9F7XpvPbObLyog3w85CMUvXjQZ7zH2ci8Ib62vCvNGL1AmIY6KT8RvcYBzDzMjQy9z8UTvb9A+ryJWwa94Loou1CeBTyArOw6G0ARvZIv4ryYyS+8D1AkPUrUhrxggiK7GmjmPOCPg7oAIJ+4iEvSu7p7f7xGMus8J3ACPThvkTxK3b88qVWRvCrrzDwecQS95hoTvcVIED1xExI9/BwUvDPZJr05vzO95Y0BPcB9uTvidtw84Yw0vQ7/uTzoHwe9n+0RPbnAET04Zo27SOwXvMp6yDxgfNA6WIWCOxeBAz2UhQ48qEC8u6B3pryN7gs90i0dvWyuCbwI1s68sC8ZvQj0rrwXuxg9mNtTPMg+Cr16qag82QmovIeiKr012d68yhiePGRaO7yf9gO9egEbvV662jyqPii9y1SGPE0FWDxiV+074zoqvDjfWj1qqAm8FtJnvQDnEj0I6cS7qszjvFiEF70Ewh080lmEO8qY1rvsqrA8JkM4PNmfGz22KsG8dQDKvBioWj2gT2C8KYEQPeQSMD3PLJy8t0jNvI9MRD3i4/o8TaNnPApdRz2PO4w7aMXzvA6FijzxRp68Lxs4vKuBKD2MS6m8bIcivdgjmjsN7oM8d5QevG6h4ryxKAk9ryxUvPsukrygSK28MwErPO3MkLzaBRi9wF6Yu9HcYDwt3Jq7fzgDvf8itLwnQAe9MD2+OgxlpzqYBCe7BzdIPLbT2DwEiNY8DRTMvO4s4bzmfTW8pAESvRDjSD0wbRG6xKvwO4fnID1J3Bk8QlA8PHhNULtLbjk97KKfPBwKNzyMBSQ8URECPZyeSz1BJly6aEE+vH29ID1g/5K7oPu7uvab5jzt+CI9GCbwvAnxMT1yBRC9y28kPXSdnryQgQQ7PiEpvRBW8zsp6AE9kEfBOwBPVTxq6V+8x1ydPJPpJTzWSje9SXStvLtC7LzzLGM8EfYvPRRjED1uRpe8KkgFu1fXyDzFHla9HhXEPOKxnLzOu0+9QEysvCpVvjz7xqe8C7invDwhArwaAWy8SF0KPLZ2xzyXBuE84DqbO2GbCTtuXuY8WjCLvH+U5TylZRw8n96su6AUEj2TyIQ8CSAuvOzi5berDdM8SYsAPOTQyztXqQs8KOP/PJorvrzQurM8az+nPBpLyzz6/VG73WcuvXivdTzTUW88d4THvFrmcbyZhtm71dEyvPKGLD04gMo8TnAnPRZmJj3aEyk9CL2kPNt9nLxbuR49pycjvdqM0DxXl668440qPefsjTwsvEO9NzdPu/1fvruRuBw9X3kGPTrZlTuBYY68y93PvBvs3Ly8dhi8hAIPPZ1wJby6jVY8Mfc5vfcTVj2Ghig8ZZW/Ol7zmLyu77M85mmjvIieAj0HG147EcJRvPvfcTyaK9i84zSmvCog8rxS+aY7rNoOPSqSVbwkZB89aE7pOuIjAT3Nfhy990gqvXx+S7xC3fS8vumcPNI9Jb3Tq4C8A08JPBZhJr20xSE9UgkBPaqcIL2sVty8vpnIPHu9g7sLxs88TgazOyaWBzxnF4O8QEtgvKQK37olr2i8b4hqPOMgZjyzdY88xwooPUIoN706oAM9/QxqvIzCFr28Evi8WB02PSGu5jwBTqm8zQ4xvZdqBLzaMSI8gyYNPehse7ySP667RHe/vL3h7Dwojmm8i9n3PAwrt7xosfg8jcMxvIhpVzw+N8+8AUVjPYDMZjzfbaO8eGacuxEwDr0Vs7y8K5MBPZdqKb0SnM48bML5vKx11TzCMZg8ZfSXPNbNmjojyGY8Ip+AvGRM8rwqzfM8cFbavN4mjLzzbNa6Z4VIPdKus7w4JVk6Od0OPTP4AbsIvju8VuP0vNzQID0dChK8HUmSvGrbRjzzN628HV3+uwnx6LxdSik9enAuPc3tkTxlh6s7clUDPdfBDDy4VY876OzyvHdnnTwbhby8DbNovKn7nbwvJIa8GAeJPLvSurwIW3M8fnm2PGMAiLuEdYk7y+grPbysA72ZYkw9W1MsO2VNkrw7aQm90NyrvL+5Kz0Qmi47srV+vAA6PTwOSP08IHkju/YatzzKZ8i8vmPoPP3dDb1umuM8hjKWvHyeQD2vb3M6scsZPakDPbybUlQ8Hl8sPQlLVTw6ejM9RE3tPCWdIT1+3K08KSZoPB9QgDykpgQ9KEX7PKx9Fz2AdXw7THnZvJmJ6zydxfE6fhZKutqvD71T60I8cANgvBQQmLzKs6E8bJOZPGJ7Z7vmIYa7pNECvL4yDL3+VBe8og/0PGix9zxaj4K8UofSvEqmiTxnElc8wvaxvIWYIT1w8hA9Pes8PZ/3Qj3gey09Fa13OwZyIj0KjGU9O3bJPOSBrLwegx48wRyRvG+fZD2vTzo9yYEBPLw42Lv4js07KPpQvPwz5zwwK1I9tH6XOBJjwjxydX68AuM4uzGVWTuDi488SrVnPRw0t7wHblY9DdEmu2/XyjwL22I9iyIMu7Cdp7wycMA63/iMvOcVxTyYoTY91AMdPb6w7LynIAM9sOkXPRjEpjxUsGg8CpvSPAEn4Dx22Bs9xssQO98UGL20dgu9Ydi2PKBQoDzzyBQ9lIMXvINDEL3EpPo8gLUdPT57zjzaYxm9i/sTvdaqLz2v2ow7AxqlvL0/Gz0eB/U8/X7dPOeEqbxLzFW7Nc6NvGCKKL02Ad28pPSDPDwzFTk8ojI9cWr/vMwdI726Rs082E05u0jPBjxM3SO8TSwAPUmo6Dxb7+66jvw1PfenijzFmK+7ldyju9iECb0KrvA8RERFvMSj5bkWFVY8VgoQPXrm4jxTLWE8IkbePIygITiIvew8oNMuPPIusrv4qf88La6+PP4b6TybY6q7V/43uDUmPbz/ofs800zSPFYstrx+RwG9pcaVvFC5TLsUkxs8eoQzvQwWJDxgHGw7kE4BvdNyBr28Oyy8NkqTPMCb/DuvciC9ATwyvXU7Fz0nxgW92XqDPCmPLb0hFRM8KWdMvEVzEL0bvLA7FRwZvbmHl7yt4EW8YBYwO/g1Aj1ik5e7TsBTPTfhnbwb9mW9AiCPvEfBHT2avB+9rHgxuy5vH71yGga9fK8hPOIB2jwzmgu9s2syO8UAYLx3Q9q8hBhFPCcHmzvuFQU98UahO1Eklbw74jW9J7jfvNNYkDxfpj68ho1RvUR/1LzL3VC9ElcHva+/HTseUvS6lQp4vXcZpLwcR3K8DfO/vIeJsjyEE/K8jhDBPICZV70RLhY8mhV7vav5t7zvC1Q77WI+vVmTEDwzhxq8ta8fvOFWajwcDhK9DjhyO3jIFL26EkK9RKFYvUtJ2Ly+nM086mVAvVoRqjvW76U8WArgu0+3MzzgK0K9dYxUPPeMb72AVMm83ITevN3NFjxe4pI8Ld9CPSnlOzwR9DO9mrOIvK/9azwYUB29xa/TPJhOtLwWS+M7FuDDvJFnt7wg8wC9ewLmO/QH+7yofpe7aHtavevyWb1Z43u9ZZd4vXJ5cbwUwQe5DZGCPDwymTxSUai83S0YPIcRWb3BEZo8+mqJvIZ+ML1rVKA8zPGqu6hw2Lz+jqi8mTcxvLabwjxAXfq7ADX+OebAvzuvygE9IKK0u6nd1LzFnzk9hpokvfUHlDxWafi8XcJwPGw/H73i7a284KADvLPv0zyUlO+5j6kJvQHe0Ls5k7e8LVcYvewKJ7wBoKi8q8SuPEaAVb1C91+82kdMvf/cp7yCkNG8khK6vLVtxDxHjva8IPH4vH7iE7234sA8JWkAvYiZkLst8wm9FqqUPGObX72z3ss7ABIWu+3ms7zT52i969kfOy5/4bz0NAi9UqlLvT3vJr1SE3U9SY8oPWXZZ7xHrrM7jaA5PI6Lv7xWKOo756hxvVE0Ir3l+wq9Icw7vUnILL0Ughq9JqiSO+Eho7tNZwC95hQZvWJTBbsRGRE8MgO8vIq/X72XMyS9PnrXu/vtab22Ei+9ymU7PDlcP70oo3E85F3TPK3UnTt14Eo7wi9XukLLJr2IcbS8CvKTPN6VVjxYeIO8jecmvAUsQL3ODUK7ctDQvO7pcr3qdqe8isC/O5HmdL1lLBq9INIpPAA5ojyAbbA8lAaOPCOToLz/ZZS8nI1gveFHi7zcDf+80iKPvA/qCTyDc3C9VPSLPLCjIDxGU4I88+zGPMjAZzwc6xm9zUYnvLlBQL0lb4K8QdtuvXgWrbyD8kK8uhkMvc9PEL2znkC9YM2oPJqj57zlqkm9ENI6PE7lDb2FwQm955E7O0KakDxzRBa8NW1svb3PArv29pq73CQVO27lAjwrvHa9A66cuziM7DtkpMs8qo1Wvd+ZOr3VV029bp+ZPFEnV7wA30a6eFv5Oy4Y7zwlSKu8jlmdPDCjVTxswie92R4HPYBTlrym+uM81DAZPLC+2bvWRLA8TQexvOSvfDzo/ca8GaHPO9ikGr2+rMa6A28PvMEuFj3kMMi8KpRzvWsfvrzbixE87HYhvVSLyrszpNy8uYURvS+U2jymMAQ79gSrPF40cbxhxFU8D0hmPGwRCjzXv1u9a+BJvdT77LxyEiu9DQywvPYjaruWe826aYF0vb/kqbl2diO8NLcjvf72J70B5C+9og2vvHVInLzzTGS95SB7vYIpxjswZ0W82YQbvUU/Jr2ACSe9rzg1vVOpv7y5oQu8V8GbvGsnW71x0yc59pk1vaS7oDsE2CE7udVBPLk/z7yHrxY8HHMLvNH06LsuCrM8aGsqvMx/lryZenC9ElwdPJHhC70qCNm8FdhwvUCr5ryFa7k7yvSEvHbJIb3NCka8hYTROiHGhTyZGLg7xNBbvMpqu7tcpnG9TAAVvEZNjryY3dm6jqovvbiaADyY49+7h8k4vYZC9rw5Z4Y7gPWhu3ZkwDuX/AA8oXfNu4tsEr0vjca7g8zwOwOei7x6uW+8/TGGOuXM97yEr2+9u8aevIVMEb0mvJY8ktABvZqiLb0sJzG9fmsnvGS/VLy2TV29y4xdPAx2dr1Bwce898inu6X5OTv9ZjK9bSxrPa8j+rsM2Og85AJJPLT+A71neic9WLiKvI4T5rxLuTa8PFJYvEPwPj1ojxc8dV+LvB3dhrsxoYU88w+dPAl7rTt+mLI7+cZsPR49Fjxb0Di9YlOgO/XYLzyacQ695C20vLWkBD3q0mi9sA7pu+JsM73+Yz89Qu6IO2qirrwTmHq9z5ZJvLM+oLw0jts7mmO3uxI9t7wCOEa8xSrLvOUVcbrF4x+7SvkCvERKmzy8zCW8EY9+PCE/gTzDt2C9kFX8vIzqLr3/Mxe9RngJvegBuju/io+8pdIwvAiuPTpXvFm9yrTUvBDSRbyxSRY87NZRvdRGyzw1WAC9esg4vbO1qrsv7ny8/RG5PP0BEb3NeUC9sR+gPNLOMb1H/2y9yLvPvG68dry3VM+7X/vAvLHiM71ADw88vGrcvKsIcL3LDwY8bl5RvZdK7bxIhvO8wd7hvF9T/7z8Xg+9WKG2vLRV3by8zjW96sdvvcu5UbxjfG29EzHmvBwQyjxBqhO9uLcwu2heKTvkIME8DgIBPP7jMjxrGpy8UQRovbbTG72WiEu5bi+fPF7WOL1MH9E8uw53vC5rTrnc4zK8gsHEvO0S3zwvoLc8U9dNvCCDHj0siGY8T9q6PJ/44rzOXme8QDAhvHoZzzxwAvI8LMMevOmnWD1WdUM8c/Mru79MNr1ajE68hR00PXVLCbxFYDm9jamlPP4eTj3dCpG6DRsfPYWXu7zzuYm7kqFTPaVLGT0ToEe89thLPPS1Wb10+bG8GRgXvI0kmzuodRS9yWJcvU6JIL04oEi9PjRAvQ58ajxUmBq8VoTkvKjwtLzGW0m9YNk/vaY09LvtrJ48XLJYvfRzmjwlHTS9o4jgvJTigTzTnDe85CJaveHTobxSoi68HGtbvSV4H7w4O3q8mVsSvXu2ab3+FxS8wzM5vNUuNDwkmUy9h3S6vLeVjTtS/OG8SxPQPKQBxzwoLk68t3J8valaO7waxnK9/Ph+vCelazzJE7O8YczDPMsIq7xJ3B48lcw2vdhSQD0PoGm8upFpPOW2SLxzww29runVvGhpkDaQPIQ76cRdvEnNw7y3Sb48XG/1vFJOX71NNGO9YWcWvfo2AL0OB8u6XwPXvHhDbL14/G+9VSg+vX/71DtPUrY8UjNsvQAolTwTB+K8FbrDvDu1VzwYoTi9bx5RPHOlBr0Qi8W83yhOvcuJZL0ZD7Q7mdV4vc4p3by3O288Vcl1venkC732+wS9EH5NvYiQtTw1nEq9lObJOpUBIb0U5ro7OFCru3CRsrzox2A8v1xTPKenw7wXDOo8YcopPU6JSr0e5jG969KxPPbYk7xqvyS8bryyPKYPKr3u12C6fJoBPEV3RLx4IC+9BVvUPEvvmLt1qTO9yZBUvXYVFTzpCAg8ZgGaPJMGfDzGxlO8CWQzvTf7jrsgBWu8tuS9uxsHNzwHUc68rIKMvN48gbzZMia9i+c/PPkVlTwPS4s8JNcOvd9klrxKxwi80my9PNc/O73Suha9sloEvefrMr3o2TO9GRACvWSTQT2Ebzg8jYQPvMr5mLvf8AK9i8JiPEyWNLx641m9x1HIPDZtlrx6gQq81sDGvLzQajzXnYe8JVh3vbq9uTwE/BW92hoavThHI7wggXO9C5N1O7Kcijw8ADE8VxUwPBzzYzvmn/i84EpTvXgu0TwgA5m80zoWvTwYGb3w11S9lq5kvUG7bL3zh5O84OXKvEp3ADwD22g6X4H4O+WMbr1yyyu9y07PvBf3wrySbPa71oVavMmMwbxL9ps7CxyRvJC7rzynYEu8ccsNvZdjb7spxGw8ms8dvY66u7o4rl86efSavLrDkzzAahm7GtaXPCa6bb0qM7W8j9aBPJU5Kjzp6zY8Jvf1OK3tGLvCm+m7FtttvZ+xKb2q4y+9aa+evPexVr3/x867oLzrvBk/nTwbina9e9FOvBq2Yzs7lEW9o+ZHvM1jIr02Vjm9EOKWPFNLUjyRq+S8QPC+u67opTwUuFS7WclqvBppF70H/XC9EVc3vR5lpjz8sAs8LhSpPLRtLrxQS1m86aSLvGiIFjw2qLM8+sGZPECXUruQ24k8+zkzPU02i7yArlG8Knh0vAmtDT3g72q8MF52u0smkLzc1yk8REGVvFt81jo4uxy8XljkPFq3tLw5pU69T0cIvK6UETu9Iy+9Jml3vW1hdr3ZJm09/JkMO+YvvrtALnK9iu0zvU0nfb1nWBW8NnErvFKElLvuQlo8T/PqvAZhWb2BPx08jVcpvf9TqLzUbhW98GqAO1r7NLzv1fm83AsovYdvxjtTSSO9JZbBO1RaEr21ZMA8BYMBvf/KXL01q2G9UGw7vaOHYT0FfWW9S7t4vax607iCyHO9V9BWvca6Gr1HLHW7xkmaPAy/0bsP9Py8xmKivMmNOT0CZ8I8WWQSvRnxCT1/kK68KwWrvJOZ9TtHb+Y86FixOw6YrDxkZLM7ReIUvf7r3rwpPBG78ANQvXEm5Tu0CQG7UoFdu01o2jshqgc8eh7fvJmOjjy0a+C7Mlc4PAcPSLwakjC9J3ZOuLIbbb3QQNs7+Q/6O+D6/jvB9+m8n88ovUG1xLyYEOu70hpyvXnWyLs5txm9KcWUvKL/wDya78886p98vcN8dLsVlcm8RqZpvGdunLvyuWO9sIIEvfTp/rt3bQe9MfbVvL0kybgU4iq95b/0vNn6Db17WxS9yV4HvBZvQL0FArS8cqwdvYL3+jxCY2W8eHa7OtFvILs045A8oLtTPKet/7wjyB68hR9NvVEFmbw3VuM8UN8hvXso9bw0NYK8YqywPDFmJ71/j5s8EOB6vF71tjsJIwq95DsxvCADjjlSAIs8pfAdPaTIBjwzBP67rwaaPNCAMDykXgY9YGfUvGn/iLxK4FG9yd61PEZmTL3qD1E8UqBOuxwOAjyktzC9qXa7uz5J/juXSY28H+CTvKjzcbzqYfm87MXMvEfCIb2HC2+90aMyvXLDLb2N4E476pGTPDL/Mb2wZ2+8mNbAPMHo/rz4mwe9lEECO9f1xry72nq9ruNbvHN8er3pobq7lQ3gu1qX47wlD5o80qCKvLKNo7wOI4G85qM7vRciIzmB7tU8JMFrvXr4J7x5aRi8lfI4PEuQcr1jEbW8vpBrvToS+juRZwG80gdavbnC5bxPm0E7QCugvOwJJ7wN+SI8YH9ZvZjW3bwAbtM8vZ0zvbL3BDrZmOW8ghZLPEErTTydhQq8BO4ZvFdEZrxZpVu9LmsFPHphRTwVHJa8V8hCvQptqTscy/28F/CovEk4jrxZ2HW94Z+MPPa4uLx7wI+7vi4qPOseJLyi5he8ppRCvCmP8zytnXw7pd8NPcx6XL2y+4c8WP0lPL/dQj2sWRS9dTEOPHITMLwFhWC9JqF6vPlPlLyQEPk8aaOZPPk8E70YmCu9Q+s+PSeYzjwUs/M7k2AqvbcV4jz5wfq8Sl8+PSP3cj2jDJu8vVxpvZwhxDt/UQy9geiSvKeaVLz9BEs7sTnsO5mskzyhJV69rVXNPHe/PDyGnW887lhrPKSSoTyYpYs8JSbVvLCt37x4Mcs8gqOUPX1c+LwJxNY8HzZyPAtaez2pQA69FA42PCFXTT281V68ZwAhvPcSJbz+4Bc8MHg7PU0bmzx3GAQ8BoA6PFvQszyLZHk9DJIYPTEb8jxRTAi7T1wSvL8BYryk/KA8R1RPPUStw7wmTWw9mXPJu7YTN7zenv88lwk3PfNN77t47IE81M7yu0mWmTw7Z6G8XyG5OwWQJT2/27k8a80JPXftPzyuhO283LUDvaTpXT2FLY0861sovLbjXj2C6yM9kd1JPWoaBD16N3o8RZ20vPImnztVRxO8+x7bOyGdXD12FGc9tZfmPHtEZLxaNxg8/x+CvEZvWj0uTdc8YqwjOmlRbD3Ruxo9vhdRPQLVdz0JTQE9Yr0EvPkmCz1L81i8Knm8PEegnTyzqIM8WGqMPJZ6KT18HHE9IY4MPIE7DzxaiPk84wwGvcBeeDo+mtY8ax8VPcp0a7zYQk68clKAPNpYs7xDuxk9+Fl/PDm9jryoDx88tYsaPXhNqby9ggg9q6ZovPoJP7olSha9LL2EPGy8RT38m6e85bZpPUtk2TyUkxM99GhOu9954Tve7ws9UDwcPU/jODwzvwe8Rkt7PV8WdzwmXn88iZkuPebuybx2PQ49rDhaPVI3Xrw262u8a3oWPIvWJjzWTRg9Ln98PQalcjwP+EI9jUYKvU+H4TzliME7Z90xPQm6VLxIbVE94yxrPVvxOTsADvW82kdWO+z6GbxeWCu9WLUaPUoAAD2QgIS7HAvJPI2cfTxRtvc8Cp/AO9kLMD00cBI9bTSFO6+/ZrzRe5073F8SPZUnnLwW/fG7ApMXPWxwtjsWWvw7z4dPPX1NGD1VxsY74j6fPHfHET1Zpgq9XQaIvNii/Dw1lym8qK+JvIDQTj1aBso7kDDhPICBcj2K3FI8KlbAvFhwozyefJM8i1AIPdp2jjwqLcI8HHJDPZtHfbzjWVA9Po2KOj6MJjwmvWg6tNJMPLAlyzyJ0F27+V9zPXrQVD2jVe88Gf4VPEbILD0qPxo9ZI//vJyyGz0VkS49vR3gO3tlCjx803k8WQ0Hu7RO5jwSexq8MYbOvLWU4zuoZPc8blOuu/H7U7yXhpk7g34NPO7e4DybYKK7G9k4PZteUT0i8Ao8gPxTPY2RtrwF2Hq7x++BOZ1PzrzvvK28AjOpu+5mDL2h1w49iy08u4nAUz18Lpi7z3oaPfgc5rxlzB88LEEJPYGfND16Vty7w55KvO3D4jw7LSa90d1LPdQNozwIgI68y2N4PMfxGTydqiI93TMPvFX/CTweTs08mg9sPbgJE714JEo9BZQbvYYQ1zvOlqs8lfJWvCEjMT2vcfM8FesQvIB8RbyvET88TMsrPQVdczzYIWI7fMukPB3hPjxNPrI8rZ3iOyfBvjweWl872hhoPNZxQz1DR487gDlzuy9BID2vWIs7D2nnu3osGLxM7u08bChdPExy2DthIVo9Kf4NPT5n+ju2mBY9FV76PL2RJD2jgVi8dRwNPUjBQzwfj8c8uNeKOH2LlTyKKFA8YOaePNOf+DxsjoM8C/sXPQHhyDwKnhu8nKQavcfWH73Yx0w9o6EhvdZmWDudtQe9RZw+PWjQ4byUXiW9158+PXqcgLzSMpc81w0wvY9izDsFOa48iXOCPbGxhjxTXtk7bEeYPFp/Uz3LfOO8776+vNofsLt8P7M8nIB1PXUWPD0F6SM96TBRPU2677xil5k8Im9jPT/IST2N00c9nzfQPB++67xcUxM9QQc0Pbw5Bb1J/fs8gx63PJCbaj2bzS08c/VzPT5j4TtYY409pGI7PfqFWz2i0+i7K5grPHrxVrsuxbU8KsMoPeASCDyDmzU9ySocvPMecz1e94c8OWwPPdFWkDxXxoI9pjsjPXTQSDybSsI77KCXvOffHLxDpWY9FyctPY+wHby+gLi7yHtmug/cJrxwd008bFANPXsCLTzweuY58G51uwYlHj0ViUs9J5DLuttHtrya6Yo8ZqM1OK5AmTwBXV49XgeGPN/vfjz3Xp08D45yvP+23TrQTB43pKk9Pfc8TT1AwDs9F1sUPMJlsTysnLY82G81vN4KebwYpgW85/4jPZE4kLyXoe88ODGyPHGAX7yfHn28twiwOyCRDj0loFQ9QYwaPCSTFz2X6Ck9VopNPDw4jjz440w5vuxSPXHiKzwbslQ9v43NPGFGSD1NeCk9WPIiu+7SEz2JfBS7hpbpPC8lqztF2Rw9Rxx7PHJyzTz96D89DYuPvC5KkDzQOE892p5DPdGmAz18P808I4EOPdzXB7xvzTQ9r310PUjtsjvjqqK8mRNpPaAvbzu+0Lg6b7ViPN67xrtXK3o9d1QxPcafUD1bRWo9lujFvERixDwT1Nw8U3UHPcXmmDxE8yY9V18nPazCqTzv+I27pDTjPKuZIj0XEcy7F2IFvEtQRrsHucS85yDEvC9+/Losfiu8F5ajPF+nWD3gqOy7KAl3PMaBmzx/BNC8phv3vOEjAz0BuQU9BsLPPCCGzzsZDCQ98+b8vIv91LyYSaU7ZhftPM351Lyyyni8bTQqvcXIIj01Id08gy+RvLOStrzuARi88tvOO0btg7zW3Ia8tsiDPBl9NzujOTQ9EcxUPcTsjzpMG+I87vu/PDED9TwuURg8zWdsPW3TIT3utCy81aYtPS0dG7woL6c8LIlcvW22hDzvYHi7PB83vTzDzrw9gP87o47DPAzsiDsAarY843NzuwzlML20Blm9Ndjrur55LL0ymoG74y3DvO3zwLz3mYG8XpHwvH44ljszB/O8madZPGI9wLob+2A8A+XBPFXNBrzADsm8NI8xPHLR2rwYz6a5sYjZux8RkbxIxoE88oKMPL0KFL1anjY8bIBRvLwI57w1+SM8X/hIvYLX3LwzaOs80g6EvD4R67zmcqa8Y+8JPOwdM7xzfx67P5pPvQtbIL0ZTH280OnyvPlosDtgWm69om8SvX7Bajyw1ls8hra3PNh0FbxEvDK79mfvvLv4Db20zWu9ZFHTPOmA7rxqPck8LOZHvTciNL3yoMy8fFxavLfTDrwo5708DHPau905rjoKiZU8fd7nO1E5QTwlAEy8feoLPN/p0Tz/r3S938ZUPENWP72JqVO95UEuvBYQX71NiHe9FA5Mvbo+njyaW7w8eETtu+kmqDshQy+9vgybu3h0cDwb7MU8W20Uvb77ZDsZVSo9n4ibPJCn9TtcmQi9iSgpPOYzyrw1Y+c7BiNevQUAYrxsnr88A2ULvcR8Mb2wLbm7Dq4/vb+9WDvKhKc8tY+WOmC8S73yzqU5FSG3u3fqCLwQZR884K9lvac/VTt9LrC8IW2wOgdDnLrzf3y9WIU2vezwKLwdCYg7Wr1LvJ42mzxRoh+9asoDvRGOiDxbBSa8Jg+3PPz7qLs7zgU9TKfSO4ac+7yZw7C8xdU4vWF/HTyZ/cA8eiIAu0G8aL0DOPq8nSe5vARourzcfzA8CRilvP5fybzXPka8086aPCHLoDxCxAm9f6zYu8TGGLx+Kky9V8qnPElSubxKYTK9/7M1va6bqruAMrI7Ins+vVGnhTtxWva8k159vVzNa70+tCW9E+CQvGs5Iztg8y28HnnOO8ZAwjzakOm8+5wJvTYxhbrquK87Wl7QPDCkiDu2rk29tNEdvXzyJzoRbre8RvfDvEAWL730gdK8ZxwzvRphyjw8T329n04PvZxCBL0Rgkq9mbAUvenNHLxr5ZG8DFNvvQ/6Rb2hlxS95J84vc0NILt7Qli9Fio/PFOrETy/LF695NRvPDPrzTzYeFm9tSaeOh1hfb3ubfm745t8PDwTorxCxGE8ZAWovA4rjDy3jyq9lX81vfx/AroBECc8YnUAvTxTOr1J0dA8ToLRPEatP7xfEUe8eaZeORacfzySAgu9bKgdvIf3q7wBWc28YGrAOxCf9bxlEoO88ZsFvSuYL72ivuo8rzQLPSGYLb1b97+8dAQfPB6niTz4Vwc8vF9NPPpd/Dy7Nwa96C+yu+1nQz02eho9tbZSPVK5qDwcQxe96TG9uzRA/bywggK8NK8evep+XTsgH3Y8NIcVPV+tLr2hPEE7sSP1vEsgjTzXn9a80pwUvQiX17onERQ8W8cZO4KlD70/U4q8fcs9vMHQH70TNRC7XKeSu+mhaLzUcMQ80ejbOgKxKb0abzU8TZpyvbf3ujzk2VW9x8JhvbOvg7osAdm8QphvvfM6X72v/J48aSg5vH0WVr31Bte46mZCvCYEtjwNFSy9I3HIvLPhVb2pNma9/WgsvFByLbuMWQ89A1QxvaOAijxA2qo6ifEOPca6wLwbv108gN+0vELErTyczFw8mf6wuzgtcr0HlXa9bK+CPCF0gbwhZQ69ic+COxipyjrSBIS8N+gkvXFyRLuBOuO6sqMbvUUmpjwUYDS9sEGcPM+eSb3EpKM84rSCvIrJG72Sz3Q8iOmMvLB1Eb3m7zw85TIzveb8fTzTOmi7IfRIO8ghibxhz1E6yJg2vEQoNLx8uVK9e23/vMbhcTxn/7w76eWGvK21J7vHyiS9MXtEPDrOJTq44j08Io8Lvb8PGL3lYTy9/sAQPMarGTxMv407mkuyvFzQJTzhuqu77KIYPZkVaL1T3wI8hnzjPNhKLTzCo+S8+UNjPA8cbb1JpRe9HKw0vNu3mzycJY68mzRqvNZWtzyPdFi92aEpPQgTHb0Q4c+7JcDSPPcEET3nami9e0l3vW8RRLx3EWi9IF2avMKNgLxOiES9SRo4PQHOmLsE11m9+x1avS5fMbx/3WA8s+X7vPrqnLuUgvS7yEwKPLC5Zb3p6qC824HivPhJQDzVOHq9PptiuhCNA71V7L07LlRcvW+pTL3Lke47Zl49Oy7U9LtlLrU8RpM/uzpFQrzMJ/M7+S2Mu/Adp7yRS2S9sbJMvR3zjjouIG29TXWFPJQhC7ttwsq88Xh1vEkA4rycKzC9bBUkvfyFKbzw1VE8L/u3PPRkOTyQOGu9nUI3vd6cPTwKGS698FN0vZgqwjz6DDK9qFHUPE0hM72khN281A5mvQf5Mb3oVFC9Y/phvVqxPTuI/LM7PU6bPNge7jtPhYg8QSJIvDCLqrvC+aa74t02vV9veLwZBzc80tN5vXBy2rz4yLg85hAzvfCbSL1bXG+9JKHXu221Dr2zBJc82GNhvWkfNb2/ymy9Gz6APDkOYD3NmgY91uMbOjFRcTxAaMw6EzzuPEzQAb3hjpM7XhvFPKxUbLwfroe7POsdPEL++rqv3lE7RbFyO9iwVr1gMHa8MjuPvGYWxzwF0GC8JJAkvZq6kbvlo8O8jS/mOyD5K70kxpe88kBSvd7UdDpmPnu94BWLPIcFKL2ldWU9umm8PCKZZb1BNDm9MpavvD3Xe7o3yFG7bPpvPC7fVL3LY0Y7oJCtugU0Y736xNC8dscQPKHrzjoyiZa7WEoHvVvPnLz20zm8zFjNPE/OPzxPByg8b5VEvIsjYzwfrQW88W05Obf5Dj3m0h89BgkXO1zZAT3cxjw8xHHBvLzUML0d69g8hlrwPJtp5Txe/pa8YrXXPFDb27vRg7k82LTrPGDlz7ygSX27ZJksOUvc+jwP4wy9wJULPb7KL73Iv5W8eJxQvSrIV7yUtwu9qGClu1lahr08X7+8m6s+vfpYGr39eHC9N0n8vDP4Ubtg8TC99DSWvAQAFL2DrYe8nJZKvdt2Aj2QdyW97XSEvLYwmryDP/c6ef/Bu/O097xgX1e9Rr8GPdwVXjyhXqC77C1TvXdTVjxtQn064rdYvffkcTzfucY8zvlsPCPNojwhzz88wn/tPCknljrCnzc8nxBFPKkpiDzwNUA8ABJVuwRrF7uNNh29i8GhPM+WxLwRB5w8fM40PGCM97oPlAs9i1YGPNDfA71fwzm7oOTzuouPGr2yfdY8OKh1PQJtM72fUyO8gJBFOu0XJD2T4OQ8DcpvPZJROT1Ghwk9v3SmPIwrqjyCrCC8nHkOvHFrcbzYTJq8P6mXPJFVhLy+0Qk8yHkRvPLLXj3KlHk8YqexvAlxHLwgEp88/IOUPBZ2Obx/Vb08Q/Fevc/LqLzsJgu8+O9ePAJLQ71vRzy9h2VZvUmJRrwB2sc8JHx5PGFmJ731NLy8wGzaOZVDubz3HTe9fji7u5vr2zv4eum89ERxvAqrGL3E4Rm7I8n4PHiEQ726M9u85SxNvQCEMrwHOQi9boghvRNJprxJXcS8W2Q9PJL8i7tu9l69HGcPvXIlKjs3avo7qs4JvZWsOr2g/+s7ZmkzuwATN7zpqKy8oLgyvYigGr3DGxM9pZ8KPe9xP7uQJaI8Gg2evBEyRboMkim8iwNpPGNj9bvNF1Y9yzBaPUEwRj2DM5q8mGIRPc/9SD3oSQM9A1kBPaT9v7yQxzI8EIBBvcOxz7xIYw69pjCHvAtqQb3ZMK67LvYoPCqDLL0pnEu8cwdLvKAKkrtTwz88BGbYPKtEyLyl0cQ8qPNOvK0DpbyfziS9L36VvIYl3zyLSES9MVOqu3dFabxPYaO8ujscvRUiV72IMgy9oeDxO0Hsr7xsYic7GPH2PCiVBb3/yE29sL3UvM3gvTxYXT29wKe4vEo/sbyk+9i8aewCvT6jc7wig3q8C2a4vGec77xGl6g78FaJPHM7+7ygdvC7dt+ePEfy2rzOMtk8/MUoPKzjWjy0gii8TJ6RPKgc5LywhOa8CE3pO47kVrwQybu80Aa+O6JpA71tfby8R3oMPOHjR71FN268OlbzvBCGrDyypY087GP0PLbLjryhZkS9O3pYu66gVr2GXWG81004vXOYiTzaksQ8pN5UvTOHFr1aWbg8MR8ku3NLC7xH3XM8192WvLH7HDzFXds6hndAvQDGS7w3Erk85ioHvZXlIjyMGyy9RPSZvEoPQTzQWDa8ftBPvVVOmbxmAHc8iDjuPFjX/bwyJlu9XPbzvNb8Q73TlkU7ZBtAvGbXSrvclw+9Y7K4vEG8EL0Vfrq8vSNMPH0uTr3Tbd88Y+8zvdDXvbsTEB+9OrYpvRgNi7yD7CE9Uf0/vcQGmLupQAe9JpIqvVPBsjwOSoA8dw4hvZ3+Ob0M6Am9stOrPETc0zt7QCG7gIOSvE2PEz3EfdY8K+20vCWwMr3fljc8XB8XvU0kbDshYoK8Rh1bvRNy2jyvJ408vSxXPNsfSr2ig3g8mYRhPNbCA7wflAU9F/WGvGdcg7s5kra8UQh9vHdh+Dw66FS8tjQOvapQwjyzWcc8pKBXvHDvF72nvCs9L/3kvLwlNrztsbO6PHNqvGnC1zyuBLs8nQwYPfZIIz2Wfc080I75PHM9Er0hzMa7XVUTvGKVEL0Yt4K9fpUGPDKzXr30jUA8DeUbvYc2dr1O4hk838hwvCXb5bzlGXG9u97/vEB9T73Lm8S8Y2C5PAltB70zqoS9gAsKPUGmZLyhvhc9VX8fvF8CV7tyDlc9OXE3O+gghD2JhRG9dQfFu6kjPbukEwU9jDOqvP9GKrxgQCS9A4NVva8cUb33dza9ElaRu+MLCb0OSMo80BOQPL/y6jx5vd86xo14vHeK4bwCUDy9gjNlvb5/6DycFQM8TG6jPEltKL09TzU7ykcSvdZezrwmTlm9ENxwPNYkoLx8S52842uqvIRagDzBiEu9/pnFPHXbUb0kCwu9lm7MPO/+U71VdBW9YYWXPKW6hzxPveo7BaCKvN5elTzz+qa8RQ0Ivf7rRLxrzmK8UqcBPH26Kb3Ofps82W5HvQ2oLjzUw1e9Y688PEnkQr17xqG8JDkVPAXExDzGVZS7SzyTukI4Abt4IbW8eLKIPMj8s7ooyU679sgWvYCztzy6ks4710foPHTkyzzOTH87uFAuPPIjd7wHKMs8Zx4evQbaoDyC4iO9T5ATvfsq3DyrGiO99vVGO00IUrshjZO7h0i9OwUVvTsWHRU9eiMGvdaXsTiwW++8XysIPaBEoDwQ2gG7t/sFPRqJwTygE0A889DhvJ3j3zvmcjw9+kHJu6cnO7wvd2S9AgksvdjYp7yBM0u9e+MUvcDQuLx36yw81f4tvUYnCbxOpoo8LX+nPKCoUr14drm83LAOvS8KgL0xhx89qgsiO00UTD29hwq8n6+2vCq26jwV+Bw9ZVrUun7KaD3iC468O4OMvDHK2TrCY4Y8fvp9vPUldj3LNlo9O7nZOeUcgLwAnAK9YNsqPLJIeL1K47g8+NSPPHhRtDvx9Em9xN3dvJDdAztUW5O8XYvHPPC/DTvo54k8aEZqPMyHJjwyI7o8kKb2u0pHNrxFWMO8FFs9vJ4ymDzShpw8QE+PPFmHJ70g/YS6AEvsuk6LgTyzpbK89piQvNj0OzzCGwI822zlvLv7qDu+NWw79uPduxhJPb2CUmG8bRQWvMvlD7zHlI68ciFdvairzLwo45s8UH23u8JsEr35KNi8gNzGvPB5HDtyUUG8hPgNPKkq97xUlNY7+cfTvFx1ZTz0/Z86bi8aPYoynzwACpK6lXY6vfz5I7vLNLe8sbg1vIIAZbxI9UO9O5T9vH7xrzwgch29QHWPOseUPb0QgoG7zjmfOy6Qbb2AEt687B43vXD8UL0Qr+u2V3skvRFYQb3w/Yc8NDYbvBUMLz16YSO9uJXxO+ZDgDx+pgO9Vd0Rvapkzjx4D/u7J2AKPdggD72KO+88QNspvelS47wuXs88f4UjPcpT+zzS/Z48UVChvADYDzwoDm28kMyTPOZfuryrACE9SFqfOxf/wbzVICq9kGQFvcsLiLwyRJY8jvnPPHgmDjzO7M88V2kEPViKmTvMPxO82NHXu4DUKLsFlTM9Xl0WvcB0jTsgqYU6oHp7PFutHLzlRQc8Cy1ovXH25jyo7Dc8uNbzuyCePLtog4G8AIgkuHf7kbyAnuq7AL4RvJpzwDxHRka9ahezPLNTyrxx/CY9ZM4xvIBGL7o/OxI9c7A7vZHwwDwSrFy9vfWjPM73ZLytVPq8ehRhvaWyqrwn4yu9uz9kvagGHr13qwa9BbnEur00zzy0mjq9Ed+HvPtDBr1Y0zu8SDWsu3aUhjz4UB+85qgAvfAlLrxh8e88FoYPvQCsHzkUUTw83UaAu1pghjzgCtc5UF94vaIucrzrNvC83YFLvYBHEL15rHG8zLQbPI4mD7zTGs68y8EivHvZE70dxvO8PqCevBTkg71Ob8U8id7WvOZvyDwWtka9TFfPurTsRr3sG+68/worvQYfmLy327s8lRcAPeAPz7zN+cc8JItEPKjf4rsRFgC8miCeutGe9bxXPEq9HYTqO9XK1LsZbyq9T4nvvPsPbbvP61W9bOP1urCPEr3mLi88VCxBvS9RVrzopwO9aBzMvCxblrxUEDK9SjU8vXdk0jw3tmW8VpZ+OZA8lrwemAM8C9tAPJ2D9ruxkqa7D5qNvDRwRL2MsDe9CPmJPOTQLr3qDyu5KzAyvIi/kbzqnKw8ooPlPACG1zkAzzu6TjT8vES377yKPPq8RC89vIoBgjwAOAK4OPMhvaGAhLxQrw8794QtPSBDAL0PnBe9MaMfPWKIZr3U7Di7V2u2PPu4TjzOb1u6lZZTPG5EozxiYM08Yze9PD5DM701J9u8AV9zvUGEozpI7Im8rHhRvboTTr1Rnk69Z45Dvanx3TwQ51O9xquZPOMqLr3QIVI83M8rPDthk7xr6k+7TgX8vL9TR70oU+g8Sp89vAs5YzxpWFI8k9O1PH8U9Dxdzxc8Gqf8O1Sr3Lo7XcK8u1OTvI8pDr2x72m9Tcf1vKv5pby5mQa8Qh7TPJLx5TrwH6g6qzEEvSDyWztQWAG7OoydPBrb2jy1wIO8icgxvVkILj1C6dC8SfnNvOrs8ryQiz67K44nPXoO1zwCuK88eDsqPEFVmjwvTQ29m3+pPIBL47yibAO8AeeevAHVOr1qgO67f/BovUaeKTyggEc818MvvMwQu7uF6HU8fgPqvHDXoTzRjzy9BJKvPFAE3DunYR+8Xm9nvR6nPb1F9Ae73gjjPESEKbzUYdu8wkxlvLMuBr17/Qi9v0GXPEZBer0Z8Qe9uiwkPSo45jx6iK48EDmtPCh1tzyYeRe83L4cOw3JbjwqGly9uqsLO5JQHz0i2pY8TRGmvMNorDwvCYO84fP1vO0Daryldrm8cCHLvE53U70XAES9uv21PCOMirwOARi94ItJOwG0njty+948WG2+u1hcdzzrvem7JeuxvGU4tbyL9SY929ErPbB/gryT6Wu8uLv1uiUTAT1yvea7+u9VPZjLXz00wRc82wNXPJc1wTxt1cu8e5yEOz1wvbyuz1s9kLAhvURH9rxJuGi8fNvmPBCG2DzbSmK9ZWVmvVeCNL2Z9Ga9tN6dvF9juLyV8qu8ijb+PEFNYb1xbKc8p+WTvOV49ry+x2U8KrBUvUnyCbzUgja87vAlvMN3kbshwg69hZY0vHmTwruxbes8T0FRPGwEs7yO3kS9tD8OvKWNVb0CISY8APTmvO5iU710YuQ85fz9PFauG72BG7I8ab3gPDcPQr1aTXY7fZqmu+5F/7zpq5477iqfPB8ikjyx0vo7T3IduvQoSj0kkTe69Ec8vWksFb0u8M88YLtLu6bPijzAFzc8fbvPPIuSK70lOim9pCwKPFtDrTuSWWW8nsWvPHEu77wZpDI9uLA5PPP/Dj3SwcY8T7AmPQ4Fn7yOx+S8+L3yvEyANLwvYIy88/cGvVa0wDyWHaE8kPaZvCpsh7zG0bg88psvvYfre70axZw8DoqdPCA/h7oibM88H30dPb3Vd7zZNBO8VjocPfBDJryM5UE8IoSpPGCbwrwsXgg8XIpePLb02Tww31W8kB68uwif/bsABFW7AGyGOYBIDzq3fQU9jNBCvMYFpjyAcpc5ue3SvP23gjyFsa08N8TTvMpKqDxAYaq8ynKkPBByqbxNQ++8WWiIvL5i2Tz0dAi8HS6WvCdc/bxqSpO8373QvD9PEL3WFO88B10pPSsfET2uxJk8iFMfvG51szxoRoC7XLnXvHHPLz18iEM8AOziO9xCDbxYwL273DwVvV+6MD0Y+Yy7UrbHPL/BJT1Ajfe6QPaOuw627TzuXfO8ns5qvPAVHrtMkh+9PCoRvEDt9TsDUAq9GgtuvIGWMD2A4x28Wf7KvKFqJz1/3Lu8wNAmOqH6mbyBxgu9SOqQOwJv5Dwgtns7Dvq2PL3VBz0CidG8pNtdPNCZjrtnzxY98R8DPbHTDj04q2s8CJqPu5nXGz1Igzm8mrvOPPQWMjzmGRO9dr2hPOB9RLtmCM08eunzPKMCCz3PXA69bqy8PJ9nzbxgAZQ8pYACvQL4yzxlogW9/rG8PKUlL73Diga9qkCJvJmvB72rC4+8GNw1PElc6rxS9a+89NRWvGCTPTu/wQ29YCcCvYChLju39i49w+OYvBB367xhEQI9XkKYvNGKhrwc2jK9IAwIvS+fCz2QqRG83ruLvOscMr35+gA9XpXgPLAQkLzAp+q8WpbMPNBBiDuNRiW98Kh+O/DoaryCwMS8zGofvCMQI73osZ27IAEcO8OzIT0I6S48IIF7PC8Hv7xUyte8QMKJug57Er2ziQE9rmqhvAC4E7pKaMQ8SFjLOxK9A70sXku8kBH7vM7AB70S57I88a8RPUVFBD3ixZg85BJ0PCD/zDogMjy7sNDAO4JTqrwyOqg87gQZvdEOEL2xRi29P0HivAk4A71AneU7lsClPKPOtrz63rM8qw0pverj4zyw+mA8dGUavBSZejwomto7fS25vLv/Db02rqY8RcwvvTq+ljwCdqc8pCL4vKhf2DsBghQ97SIuPSrn1zzoQGc8UJ/rvEQQZzxKFLQ8zkr6PAA2CTkyZc68EOkGvaPPvbwAqYS5gGkDOxy+Mr04t+m7HDxJPOATobpuL7e8XnngPBA15rxNPS29ACKuOuRIfjzUmNy8MhuUPOzKEL2AQ1Q6TjHePNuGJT1gIL47j5sHPbMvprylByG9Ovr/PJy1XTwAb4I7vHhkvNZaCr1DLRk9p3LlvOL2ojx0dA69CT0XPUjPZDzp9QA9BCgtPLjroryJvOm84TrlvGz7AjyoVSu98s1jvOCRKztGiCi9NGwzvehVy7zoAec78IaLOxxxOjwy5Re9Wv8wvSBjsrpDZAM90NTtu/FV2rz9sh49vVgTvQBP0jnAyNS782cnPcrgvLxgl2q75rLMPD3sHj23ViA9oXoZPSSMSTxlijI9b0YKPf2o1LyeKeA8LsLJPCVwk7wQurM7AKfGuv6txLxtYA89IDIOO0rBzbx20PE88K51vOdyqbwwcOa7lDgQvER0mbyx1QS98XoPPcREA7yAzew7O48ePXBVsTvgoim7pBaNPOTWcLzMd2k8qDcgvVEfBD0wIzg7HgDDPOa3jrxcVgc8RpETvfNc/7zgzkq70rupvImyAL0AZnw5CmSmPEAw67v/MR09RQ8jPdYfM70AkNC3S1W+vHAOh7t6BTC90kBVvKylDb1TZjS9w1Movfa4jTwQrwo85R6CvPjWAL2ijcg8ME2QO/GJkbwusNY8bwYxPWA7HDyPbua8sE/TOyGEyrwWWQe974ATvc4SuDxwVGs8yGcAvRIwqzzVuBs91vHHPOJl2Txomhe91wwCvbbyxTznlh49aBNNPORulDzkEj48P6LEvIAEKb2clF68MbQxPeckIj37uzM9bBz7vJplyjwAAJC1n1oCvfTQH70AZks50jcWvYRHlrxHSNG8zoa/vC+ZgbyI+5G8a5cjPQC437jz4jA9/lm6PMRsHL2Ack07laSCvEy3/Lx4p1g8MJd0O4ZF6LzEkoc86ccDvV2wMz043Oa7/m/7PEhFwrtax+I8KiMkvYC7z7q73IC8AOjMuWBsUjuZDio92MWPOzoZCL2RrBE9gMpjOvBdmbwgGbq6s8gTvaS9Bjy95Qy9vpvAPGJf/zzzac+8gGyGuyj82btkmyM8iDswvTSsezzIWSu9qCgKvNk1CL3IZCO9ILn2O+BrI7tYcDi8mIELvCAYSzs0xxy9gISjvPBaBLzgyde8Xtj4PDbxjbxESdS8oeQyPe5jujxC/tE8ZMHGvMY9nTz4aCu9tlCjPK/bJL1uaRG9F/wjPRi3KTwIUJa7uCFbvP4DyzzsB0W8yk9gvIIe0TxAeA26nOGBPJAPdjw6pSC9K74JPWauyjzhrSQ94AXpOxiBcLwKCe28j50zPdiEgTscUP+8R/4rPXGxEb3omdY7jiLkvGBvZTuAVWM8EL5MPBTpIb0ge9m6YP7zu8CbW7u4R4M7U9LtvLUBDj3iVtW8pdQePaZQzbxU3zG8BRsYPUpQzzwwchK7/pLOvAAkCr1EwEG8DP8tvVP0q7x0Bim9gAt5unJgzDwMI2O8+tGePOZw5TzuXae8QifkPJ66Kb10y388xifuPL4T0jxYgjW8pQ4kvXLfgjxFVhM95FZrvEBdJbtSQ+c8csKovK7zn7yH6i0916wCvQAN/zqAbOS6jAkHPNfbCD1Xpik9wzYePaLU7DxYOs28HC9FvHvPzLw+IrM8Vt/gPBi3QTy1P5O88xr+vHEjJD2Yh0U84H7Nuzbr27yegq08dO84PG0SFr0/uzI9ge4vvVnjBb1GnoC8yH0jPGAKiLq05n880oOevMTmX72+Bf68FlEBPeC97bzW5Ai6pnMMPVSemjz5wCk9QkHGvGCibz3UR7A7xXVNPagZMT3ZZ/O8dZpkPNqCVjwZXAE81zXRPLCAN7zP3sU86WYOvZG2Nr24Tnq8SKeYu1KkDbyqj4Q8wEhBvWZoTbsuOFy87YWkO0hNM7soF0m9WBAUvX5yxDx59GY8cMC7PCNwljzQfBe9AdLMu7RAv7xewKm86eQjPFb5nLwTsOU8bdkRvcOWc70Z2xi9dc56PKagCb3sGKS856g5u6KBKTx8iwS8ig0LvWTU8bwT4Cy9cdQavXzWc72rW8W8MI9hvHoTL71cvsi8REYqvV0ZZb0ZEcg8g9JNvfqYtTzokXK9bA9RvERzPr1EtJg7XGHwvDZPRDxhomG9l3QBvZ5Rrry+lTu83Y+YPM27Bjx/LGC95+sqPQgERbziIti8dBRLPISmMryV5Sg94N6ru6+kAz2L1wa9ogngPDuxgLyvvBY9D0wtPVccFj3oQIc8gEs5OmjipTxC76i7zNAevYLk+rpkI6+7OvJQPPJFF73PP708t+QHveUYyDoZA1877fR9vKd03jodZ9M8l0ITvVyZ6LuWCZQ88UT+PIySXz2/jaG8NZdNO1Jqtjq3fY+8BzjovP/pcL1BVZ28JZ1UvTanIby9oQ08u3HZPC9ZkLwYU269/zVAvayqgbxuXCu9b9A6u5obSD0dBum7U6v7vAqbBL2xVa26BJ8qvSnvED1dcLe8z/pivdpLv7w3Ves8D5v2PAECtDxkM6+8DX2xu69JXrxEhBS90SG0PM3WDb3X9Ic8pUbiPG4Zwrzqvli9A4WLvCsiELzmQTI8xcQZu/AhPb1M1QW97zIFuk9pOj0SyVE9t3Y2vXdZyju+e/S77sJjPTOQmjwGTR48T10YvW8k6byMqRK9so5uvQNhm7zRhOS8aE+EO7iR3DyjIhe9NV5VvXRTHr17oB29+GbHPEmdLzwTSGC9dK9avVLXGL3B1Vi8zRPvvPhL/rw9EVG9DBAmvbJGZL3d72a8cMPcPGwRGjxhpls8ilm5vAhsVr1E0mS9y0HbuvYgs7x3Hsa8HiSoOyL2v7sgZSK9UX+su0caOL3jZX28d5FovUevgjxRPf475OrVvKEoz7zcQb+7JlJcvdHTTb3vsum857S9PKiEoTxNK0Y7rbkcu+XGqrkHMRg8VVYzPdxb5bzEpiO9uaCRvHsCDT2t3ig9bun1vGAy9zsgokK7sQgdPRiVHDwWV4s80Bjtu8hgWDwGOhe9TionvdMiVb2niOk8NlwIvB/tAL1i+g48sS73O/rE2jz0mfO6yBiuOxdgKL3TuQK6hMk5vIEnATq3fec8Xub4u6YcxjyXsMq8xXDQvB9dgbyH/ki9HpW6PJsFPzsSWRe98D4xvZa51Dy/X+Y8EXuGvAyd5TsRES69XcjGvNUrEL2MS5u70pAQvLNFa72n6QG9crWfu/ybG72QA1K98YOPPG0tpDw2b2W8uhkhvZw/D70zaO06Ury/vE5EZb1UVQ295d8qvHY8nLul4SC7GswCvPz/VLxhZiy9fIcIPOqRvbr0ddC8M84pveCo2bxroic9ELkyvWPpi7wm9fI8fAYGvTlqorwKCSG9FH5ZPTE8U73V5t08/sA+vYehvrso44w7nbIrPCkJBr3BBkW9cNexO2cUGrzutm29x9wSPbvqJ7x34ZK8DCKhupb7wLztJwu6VxpavDpGt7naOTE7Gg9nvOBxbrwAxbK6W4fiPM8TSjyW2x28PS+mO0GItTwqx487u9NUvT2pFT3E51i893ZPPEHqmDynKtm6rY5qvULHW72U3nK9d4tdOwa6nLxwmea8CvuSvAfhRb3Zb+o7odQdPSni0LvfBps8tYQIvaxGt7xro6E7kzrzO8j6djzzPqY87SJbPHozNb0N3129x3yjPOpjJjygyAW96dRjO8gaSzxU1kw4mGlDvFNch7w7yUS9MEwzvSlc1jsS1ii9dXdQuxJCCDzTSgC8DY4fPX7w47xSnz49b/OVvNR4h7xXulk9TdHRPFkITbzEVsa8e2aGvA4gN73liUm9H3x6vBKBk7wTTFI8yq5xvANv/zqqLQC8gVoNOzWaN70ADrA7z64ZOxhjMLyc4827eUWtvCncZTtRp2e9Nsi0u1Dq4jz7Fd27CI3lvAttvTz8WxG9enVdPCvfrjsDTbG8+2+AvA9md7xQGeQ8U1IOuoEkOTsVoFO9GUwtvbbQ7zuaXJ28+1dfvVOHEzwlipk8GJExvc5TLL18zyE7/OczvWzU6rwQVAy9hP2BPCg1fzxnlmS9jxdYPDY+SL10Ogm9kyqtPGGY4TteSIe8arM7uuMulLwltgK9klwgvWkim7sPTDW9/f5pvIrA5ry9Gmq9AfTgvEPeubzf3e+8xFlWPG5pb7wfEbk8yqzdPMOmqDzc8sg8bdFOOzayibwFIHO9pHeivGsBNTwtHLc7cAhyu/yAHb3FZA893qHWPBqXBr0y7Z88TxaqvAsTlLwOZ8w8ghx0vPIo2jw4iF48yJqXO5Hc3rwANWq731uKPE6qxjzJVqW8NNxxvQyDKb19jNc8qTrjvMCEh7tXIMs852mFPK+YoLsBE028QmfivEi5k7x+8NE8WBAGvQxWnzzQ3Zg8QCZbNWJAK72b7xS8o/ifvNxRVDx1AAO9F4RLPPTMj7zU8lq8NDJhPLGcFL3//M88/EotvWQpvzx4QGu9/n6AvJuMuryJFRy9NFc5PGw0VDyNcka9hpQavZe+hrzTGwS9EaBPPa2bBz0vptW8PfiavDGVo7z1GxC8y03Fu03lbTwODDs7ENdWvDFK37yZEdw6/75ovTZ6fTx9n5m7l18YPC6KB72/iFG90PGyPFFgZr0ru2W9axzKvN3uGL3HZ3e87m6ovDRdMr0Cy7U7/9WuvDUwZT1krhU7ELV5vEc76Tyxlom8sADtPHB8a70IS1W9JGYWPV/hvbyaWGC9qOTzvNXbxjwA6w+82nhqO7N/UbwZGWm9Cp+Gu8GonjzkMYQ8Xa0ZvTm8eLuTj/688Kg+vZuNxLzN8wU8T2GeO4L/Ab3pQaG80EG3vPRhErzH7m29dcWPO2DL/Ts2v1a9gld1vQFQczza1+c70gLOunmCyDx7Kei80VhsvT40gLzvEvm8/kLYvGjEVDwubEe8oU3hvMUMkLuWZvc85iR0PeIVLb3rCdI8SiD3PEWI2zwsyga8s5yxvGkxZD3SLQw9CmrfvP9gRLzsPyY8kiNjvTG0S72sy2m8CDUHvWbFMDpiO1K9WsxYvVuRA7kga547uJilPF/TNLzWRAc8NFA8u15OCzyza8m8r+ivPG/gA7otTsi8gqq/PEzcrbxs+TK759mDO04HI70Frfq778xAPK9cKbwyyQi98N5GPPz9cb0g8308Pjf2OySOjzxJ0DC7SzUNPNTBPz0z38k8TwpvPSnKvjxAyLg8NmmQPIBP4rsmhxo8biLeOs3GBjxRzZs8aDYVvLOKOr2Sd2i9mfgEvFPsYL1KIOO72/srvTRnG71YEEq9H8epPPBj1bwRzBk8LfubPHsu5LyY3ow78AaBvChP7ztgW229GrQmPOoyObz+3rg8Rm/5vGjGZb14ene99JCZPDI4Kzy9jNY85RaAPK11Sb3I9cM7WOcDPNqmCr25T+W7nK8rvOZ9Dbzif1y8IwRXveDxIr0vnWy9hS2CvBoqjzysRqk7eD3eO6p93rwMyL88fcniO15qzjxdZ3q9jyJYvc9TbzxLWGa8SWhSPEZsNL2nHgU8LfAmPBvAiryUgcS7mKJZvBoNDL2CUbY813ZVvRwSeL39wFi9qcldvV8m1Ls0WUu9hpY9PDzcPrtSEiG9SlUku8mEdL3zYWG8GJqrPLhUU71TSDu9vQqYvMWnArurlA+9GXIfvfx5qbzQNOc8oIjuvJu8F73EJ5W8yiDBPD7uHb2ANYS79mmGPMwKGDwAjO24jprOPHsABj3g8ki8hFh1vDLexLxa8Jk8qSIXvK3Txzshi2A6o6ZJvZ6WMT0ny9S8p2MCPTwwBjw4wKu7eXxLvUQQC7y/sHy98TPZOqkm2Dxxoi27psgOvUzfWLxzQ/673LO5vNJPk7ybs0O9vqRGvI+lpbujjVu9rq3Ru1AFA71EkOC8IurtvHJF6LxjELK8GMZWvZx+Zb3REzU8Sc/3vARzHzqZgS69T9M4vXf4sLyT93q9jxNevfZsx7x1u3W7P0zTPFK68LxZsny8C2aAvKfJ9bvrA1m91HICvd2+Ir21g0K9WS6ZPAP0b70iCf28uoU1vSh97Dt6A8M87DsivDQmrbwM2Cu8iJ1TvIAx8byiZv88f0AaPYxYgryG/la8gxEWvHX2Ab2OPge98HtfvfHTa7xmpm698dCUvPAJhDvczlk9dgBZvD5IZLwKTHG9xi96vJM+Er3ARDm9GMCFPHmvhjzSo4Q8jG0LvDtJkDuHoQm9JzjOPBSyKLuYix68AnrivEsFpzw8dQi9GbsivU4igTzmbi693Bxru4GBR70SnWy9RHqsPGby8LyFMM480/rGvJhMY7zOOYS7H5xqPLEduDpmLKs8rQ95u2PzK71wngw8UmlxvM03Ib3Actw7Bjagu4JQnDyILbQ8gmsEPXdsFTxpSUu8l+pHPRDf4Tr+JD49OAR6PD+pL7y52fw8xBsrvZN1Br2AGm08J/zTu4nlbrzpGXw8zSF9PAUJ0jxc3CG9tlZKu8fxgTxkAFE6CULRO9YQCT0v+2e9q2mavBMqcr1u3gu9+lJ6u9ZlH7w5QwW9XjAeu2wh47zdlEi9A8BCvM4EYL3tyWK9awAZvMjzFr2R3MY8atsqvFXMV739wA69qhreO/rcRb3JNtY8/zKMO3KnHL2+pxC9NbcHvDEc77uzrii9oV4pvTPWyTxMXzq9fOjWvGIUgTtHcFu8jmhevaGSJL1DPg67MbnpO8rPMjyJZXy9oMhwPAcMTDzGCgy8pWwYPPdfdL1FKMe8BX95vO20gLxAPyI8wa6uu3PVMb2kCvW84F3Bu4WMRDr+gsm8IvdfvHbROb11g5Y8jZc6vRu9GrzXzDu9/fTOOSOUnjxVID+9Z/tBu71dojybY/y8xVYpPLr1nLvmzG48JCo6vVWAIrwOL008ru4qvU/9D7xTyhU8gKISPM3RWb2zMFa9FFbSPKmBY732W3e8OqNhPKjoxjxABuM5lEZovbbx0TwO3x48Q4xLPTV7pjx0uVS8glbbPNoa87y5xC09f4yBO1Ik9zzZVjs8Nv0pPew7QLzCdfa83fEEPWhRjbxo2U+9c74pu931Xj1YLlE8E3sWvCUrhjy4UKu8h6UUPX2e1jw8WeC8KpHuvIIXHL1xVRW9QGG7PK+jEDzOHYM8qe7ROzHTjzoLjBo8AwZzvb9Kz7uBRxm7FtQ5vQe6uLxmYjG9L09iPElsRzqHLDW9ZYyGu3zyzbyA68i8sCDTPHuGnTznyxw9qZFWPNrpID2zM7U8NQSbO8YTbzuiZm47hdCSOmyZCrsA6qI6dZ/RvLukAzz/HLg8XL+4vEH6+byN8dq7t8PIPCJ1j7wGpNw887thPKYd97xSEdK8p9MxvawLljw+Mgo8zD1NvNEv8TxZkII8uIunu0WWVL02D+S8ACv1O7je0zvpUHK8e7nlu3v/ljxp+FK9O+iSPEcUWbzs0qy83G98vZ/Ywjtb6LK7/nfzvBzm9ryDIFu9RI6luyYSWTyxzoU6tQE0vXTE77xPqja9KJv4u4BG7jye2A693KMVvPxxn7zZzJK8oEDTPE+McLyTUXI8lBHJPN92GjyEnk+96Z0zPDQHEzysuyo7cWBYveTGV7wXSSy9mHkGvErgLDy4VPA8zQ4+vdN1kLztdsy8K/qKvL8+orx1L9S8bn2GPLiZLDvg/tc7jLkePOhBZjyRWb28bmkKvXe/jjwAYb06AEJ7vfBoXLtQREI7Bk7kvHVClrzex2Q9LvcePGXsoDyW7Pk8PmSLPA0wWDxx3UO67og0PbZs5Ts6Fx28eRxtu55xizwGXl48xQ5SvLahPj1GrUU9jTkGvTq0W7yo8Pi71I23vB+6Zr1Vf/27PhGHPO6AkDwThbg8JqjRPHrBUjyuncm8xrtlvdQIj7s8Ux+9fQGevKi4vbzFgoU8XyeUPNvXhTyHh0o8VdMJPLB+9jt4NQu7fFxJu2qy0LwAWQy98B9wPGsQPLyMVTO9Ce79PL0p67wykBq8/mTWPBFDAb2hbyC8yg3CvAOFA70rRTK9tzwNuZY5dL3UQwu90DMivJ6ZiDyJVlA8nSdQvYjB67x+Kjq9iH3PO9h9Xrty+co8rD8iPQPOIT3LuQI9vNWJvHIjFr0g1wA9njnPPFxkX7uAQZO8pT5YvEgm4DrNlyM8+VNFPaToGTwQ98K8XuqqvPqh4bx7zvc82vuIOoqZlbxlEwC812McPE/CvTw0IaQ76N4IvYlABz24k1A7XTWvPOZnD726ymS9Vo2fuqtsmbwO7hy9gy7lvHFJbry4i9W6ldM2vMzrIrtTChC8aLLWPKuLuLwmRwe94cSgvP/8Cb0/4kW9bX4mvaiVw7z0WYi8kSh/O+5w17w+F+Y8SJMXPFnFRbwDxpc61QpJvbTg/7v6h069Y5fvPBqIgzzcyzS97fwyPAB9/zzjS6W8ekmdPGB3u7ueE+47idfMO42Wg7w/JR27Fu78O5zuMz1kHEm8spZHvWfxZrwhuVw9wl8TO1PRFL32fZK8w6ggvUoWBb30wsQ85JB5u/VkQb0cjJU841YIvY2VdrtZmWS9W/jZPO/JtjyyjQ+9WE6FvaLMR7trAdQ8WCWdvJi4r7z3YSs7yhbMvHj9VzzRwmS9JyCju26HUDvyFpg7x4SsPKQ7sboYaDi9xLZHvXLqszyah/84+Bs/vQwVG7u2obY8EFRhvUIwdb0KoEC9nX4zvZTOXb0wtbw8UWSWPB7M0rzVBQO8g5BCvW7GNr1nFwy9n0kuvTx6BjzpB/+88AwrvQ7aW73kMwO8rEQOvZDi0TuNB8E8KhAbPcp9Lr0Ofvk70XeevEtftDxl/b+76zmDvL8bhD0EDY87J1IPvBih1zz19s081eLsvKhyIr3UvTA9QH0Bu5/1szz5oKe5yGtiODYgKDxJFEO9cpkqPMaZHr3icgO9DvUKvRFWEL1+V/U60gGPvLQ9Hr17nRc8K4XqvP6pmTzSkuQ7DkKfvCdfRL2CyVe93ZyKvOo88zwxc907wBArvUvJEb34QHe7EGUfvRM+77xhbSA9ikcJPeJCizwlCyS9KB4yvT5RqLt3QwE8GASUPATZojwAhfW893oFvflBOjzuhik7/jfpvKgVUL3xQFm9KNCcuyeEFr1QasG5Nfk3vCPDJDxd8G08meE1vfWF77smgjG8FhtkvTgosjypNOu8SiGSvKg9FT380G86YORZvd57BT00dAK9Mvp4PM725rzSzeE8JsaUvJz4jb14pR28or9lvcWCMb1uzqw8HofLvCQFWj0R5cM85MSvPJtikTzwqRI83AcCPMyhSjy4ipA8TirkvFdU2rwsvHe8n+aevAN6yDxAhFq9F5e7PBijDjxPfns8wD2kPJM7V70kRde7QGAsvQGTa7vgXx29uQQ0PMz0MjysKZk7bkFCvSIZvbyfJK87ud21PL2CYb3/pLg8SU5DvMMHhDytWiY6yeZDvR4DgTxvL828IY+gPMaOC7w6kyW9t9NzO7oEgjxWRp+8MB03O5uZFTsIE/I7q46sO0B0pLzVtgG9tlogvRtXfjwPNgm90BeDuyhdDzx4/Nk7Fknkuzcpzrzog2O9ubUzvMm8GTpBIii9iRh8vdBFQLs84VS9jwYIvbI0Krxsjtw72bRXPCkh5DtaUFe6n9S6vP9RIDubL5k8m2UQvYHMorwEpcC8wq4DPQLakzwntSy9J+UPPESVm7z7tTe9MQ/6PCIjXr0kBgE89WOQPDSlDL2yskE9hfIjvcSRFr1QZVQ8STwUPQtlAz0hYaW6TGe7OyYYuLy9jhO9a82LPJ+imDzNq2i9qEmLPJV5JL3hmpU8CNToOal82bwGRzS9XjpFvQ2NP7skFrM8u2wOu+m+Bjzk/QS9ze6eutPQxbwfiVI8CArPPMZckjwgu847b3J4PUoKrLz4UWM9M44XPeO4MbnStww9uTbsu25shLwaYYK875cGPSRyrrz/cZy8eGljvLCkTrtDHqC7rejBvHQCYDzQaqW7PDlCPWOpLL0dXNS8pt0zvUokzzxIX527gW0GPRy2Dr02hkQ9oqC3PGYYmzvmWpM8JegXvRZyLz12DuE8pdBKOwAwoTcEXyW83qFqvPwrfruX8yu9Js3zPJscFr2L8bC8kN8nOpXRojzYXJ88Nl+NPO7RrTx3IyE8874cvY2Kybz4V4u7vEwuPMApgzxiHyi9MzYCvdzNHb0rDBw9eKAHPKmpQT36X1K9F1v/PHCcNzwk/Cm7O7xcOxd+pjtsO9i8p+dIPXZDlbydDFC9wT8YPEwrTz14h+g8RTA8vYwyqryHjKE8zSODPHCF6br+wZ28GtbSvNKF2jybWwI9TCIHOureNrz0zSQ7228FvY2PlrxVPkg7Tn6uPHeeNT1tYam7FGsYvYSaXbzUoI48SEFzPFyfD7xCyr48DpoUvStCJj3svSq8ZZwoPbgviLtIidU7QG4tu7pLsbxepfW8ydcePek3Kj3gqeS7SvbMPGwbJ73O1is96C9SvJAhrLuFKhw9SfF6u7C5ZrwSXsA84MHVulPR2zoGD/08HR0TPShX0rv39hM90MKBu+o/K7071Cw9gBMBvBTR5LxAUGg8pEtwPACKdzyT1Si9UgBYvKJ4NL1RQ3U801TDPIckl7zYp+E7nJogPAJa4Dwvcuq8eoFevDhK2LvPYTI9wPR8u8Htqrm1LC09uL6WO641ijw/qEE9wPvqO3zjKjzO6MA8yxErOkYGkrpNz8E81X0Evfni4TzoP9I8zTySvGvSmTunKwi9whfVPD5LbbyHXY+7bsWBvD0x8bzQ9JQ7gV49vJtq8zxed9e88ZS8vHsVKb3seRy90K56u1UuTz2AzeK7vdVRPRhELzzg8ee6EsmXPDDX6DxY7KS8JPdAvaeaPj1XzCi87sKsvOprPb2t7788Jy8UvXlTq7zfOmC9lroivdJWqTyc6LW8auBhvWg6aD36ZdS5RvOaO25iDb1NW6y7zZMkvfBRKDylJ5g89c+QPOmKmLzbZy69Jo3WO1PO27zfDri8ExPmO+MM2rwEhl091dOOPBdd0Tz+0Qe9lXgHPTpnfLp4JPC8b9AMPcSDnTyffqo87crbvIebtLyrBZs84g4lPfgCorysnhy9RMvpvPWAubyYwNq8qiGIPJYFJD3owCW9wDArvN4lpTyW4Ei9AEcjPIkw2rth2Uq9YYFLOyFGuTztp/w8EOghPSEizDx56qw8paSrPGI2RryXySc9Jr5RvZHWJT0KZoY8tlz4POCHtjtGQOC8/iHgvDRqTLwoL+27QKTEO4B2G71+8LM8RfSxvDFXJD2gn+66UMaUu2BCbTsIK6K8gWcNveQ9MDywx6+8DSJMvbzRR70JImI9epR0vDdgdLwsEzM8p58zvGh+ozkEZzc96rb3PFdt1LytnxI8BsrrvG1077xPTnE878IZO/gQxbz5YlI8pAFJPbQzfLwtBBK9HU5APUe63bsu67g8NwThvCRkGLxt8y+8HWkwvf3VyTzIvmA830h3vFM7jDwE8GI9RB3NvC5DxTxeVWU9ShoRPIbz+Dz/22c9kaO/vFIZhjzVXIO8O1UwvAfFPr1HgSo9bKIRvaSIKr1g0Gq7UCOIO+XDsLwAcpU5lvUQvebc8DzKJLc8tm0uvQRgPrzsxHK8+LcFvbTmVTzAPX27qL2Hu2go2Lw8tzq8Pt5tPVAtL70z3h89wBjYvHcS7jx7Uyo9OWDCPCFXuzxroqY81EG6PH338Dzo4Yw7QG6lvHOZejySNeW8KIMDu1RkXbykDyC9CucMvZLz9DzcPm+7xq30vBFLGr2wvbG7GM0yPL0rLD017s88QDsLPQvH8zy0Bpw8xznJuYtnOz0B8GO7sHbDPCj6KzvkuM48A/zgvMoIqrvEhFk93p/GPJAfTTttFM+81Qu6PMX2aLwmRpk89uoYPJs8PD35Dji8dAPcPN9dSr0Dub680OkKvZw097xEuuk8JRIVPWGpczt4dhk93wQPven+sbyrVp68qsznOuemAL2qhxw8BjJfu08wHLy9RES9A/atvMxAZL0qdhm9PUvePIJ/Cbklhz09Qw3vPM17gbsroaG8ywqnvMCVPjuMFCS9XSwLvEH0tjywYSY7UrDbvHvdjTx2Gl+9r10cvYDFfrxaE2a9cjGxPIrSTTy7GEO7E5P2PG9gszxTmxc9HSlKPHa2srxhQ8y8ZYr1PHe3LT3E0q68lUvcPCfSQjyaPg69ZYLxvIEDSr3zm189VTgkPYIv7Twm9sQ8zZhBOz/5Rb3Dyi47gTNbO7nQ8Dzm4cm8YBUVOxuW6jtEq+i82sIyvWqt27qXj6G8kuQmvLrLKr0f9M07y0VSvSWCMzycW5o6wZIeutLoJ7wWtAe9s0YWvTYalryBKDA9SLWwOy6FwjyI6R+80qgPOd7ckDyoxVO8ToYOvUSrLzwAWRo5wCCvO4IRwTxH4y+9eyMUPaxZvbwBNAu9AFDDO13mMD1cmRK9AA0Ku7sfKT0i91+8JMyHPFAGTLy3dRq9wnH9PMLdJz0IbIu8eVajO9KiDb1KtWu8MgJHPMfIsbz3kSW7OE4NvdjIzzxtw0Y9mOZvu91tHL2yiPs8FYIsvfceIr088y+8Hlj6PHZK3jxMEhy831QYvRWJFb14HIS7av2kPMKu0rw+4t488O7Qu4m/Iz2FqBg9cuy7vDl1kDsvBlm9MEXyO6fNMT3IohC8+AhOvIAWnbwNMdO8gqPzPABeEjoAzf85+skYvVUSB71o4IM7pRCwvODtijujFC29QBYBughTEDyIv9q76Ne7O8DJwrtO5Ry94KgjPMIo37wnsg29hLggPBYqrzwik/C8Nf3NvOJtBL0yQZq8kfciPQosyzwA7j06VovUPOZ80jyIojU8vK2SPALiF72+QP88eFqsvAC+oLh34A49YL2bOuCMb7sLmh69cAgbve9xEb0qfMy8SPPSu/ixtzuohW688NsRO3LYkzzk+wG9ULEjvcSRNjxMuge8VvfrvBwtLzz7OCk9pI9MvFVSIz1oICi9Hj2dPExHcrwgaOg7ABySObDa67xcoSY8qjVcvJn7M71ukBK9eLecO3bMnTz/TBw9ZLArPBDj97vVXvq8YffFvCA45bq2U/G8uhK7PBHZE72OlbY8smfvvKJkx7wYfDY86Hf6uzCmQ7zgd4I6v9EzPQDDETy0ZDM8EOpBvNTwVTw33yO9dagmPRfjBD0AoMY6QbsAPQffBz0cJia8CKu7O8iRqbyk4oo8pQMoPVi7Gr10BO68S+QbvYDn+LlcreK8VyguPWcyAD0htAQ9au+TvHVvAz1A3U860hz8PIAhdrt6Onu8MFQzO4BtX7rasts86MXcO4e6BD25YhA9GLQgPBGfIz2eC8M8eFm+vFxxNDx2HBy9iihyvJgdDryQxhi9P9KAvE+HAL29SyA9WPkTvMoOvLxO/uM88ky7PBjCD70Layk9H7kavaBmqbswqIY8CoeGvKBlS7yU/xg8bAAEvYToHr2DWdW8W60GvZAvcbtoxRY8c5sxPSd8ibwAxQa9GKUgPMLk9LwqFwS9zxsBPTNBgrwc0RI8sK99vAdEEr3wt9+8SF3XO6nVobz61bW8mb0qPav7KT0THi49DKpNvEnQsbxxR7m8jgCNPBJRg7wguO87lvJavPbvoTyUrjY8VLwevLRB5rz80RK9ki4Lvark6Dw2Hw69RqbOPNCx6LtW6zC99cUKPR/HKT0iwKs80I0HO0O7FT2gJQ+912HgvC+YFr02yei8p9gTvYgIv7v8uTU8CP2sO+aVwDztZyc94e2OvBAEpbtQNK87hqT9PNBQhbv4PP47bxojvaiMnLuJ1w+9ppXevLA+MLy6uhC9qC0XPFQwZzw0RIs8qKPDu+rQ8jxdutO8SNvKO4fDLz02ewy9eKlVPIii4DtQfhy7AByTORhjqztQuZC80psKvURFBbxH0gK9zYXFvBwzIzyIkhc8THsUvVHZG73irYS8Hx/RvEG8Lb16IeO8otaPPCTMHrzcZYI8hdQbPYBWpLkCKP884FEyvcxfhDw3RwU9QMm7vFBf4ryAbti82MUEvIBaoLvQ6m48GPSHvFDc/zsAFgu6qycoPbSTobxsING8unGsPDG/pbwwGRi7oEYyvZiAxTsocTs8mQoUvUhSjbtsDR68RwcmPXqTvzyYOCu8uLVgvIYCc7xaO748ePqBvA+elrwetNc8ADpZuw6FnzwYXeU7Sk+iPAaegTxok/27eqfmPPy+XzzWu9Q8sIjvuzL8Ir0VHBI9jkatPNCbPLyWSuw8214cvVfGCz2IYI87LugdvdE6FD3YvdO8UV8cPQ+4FL0ddh+96LIpvaA9Fbx6aZc8eAGTu06aeLwd5PO8pE2TPFiDbLwyvaU83I49vDIp3zwXCgE9QIazvJwjcTyW21289mqVPIYVpLwRiiu9sp+CPPL85Dw17xS9YKo0PD7EW7wF+AI9V0cRvfycVTxZjTA9ELy0u2fUo7wooki8DpUjvZ5kAb1Z8xU9ThEBvQCaEjrV6g49KOvAuxKHqjwWWI48hdUzPVIAwzyi6Yg8IGGHvArfF70n5hA9ILWrvOtAHz3H1C+9n64mPT5Rnjzs+km8KAzLO38XFz1AxPq62EMnvTFKIb36SX68DLYWPFj4C7zwy6c70qvBvDlCJj0AM3U6i3+cvNormzzV9Mu8lnpyvFzAx7wflCo9nF9gvPwUiDzQRiq8QJU3OxeuBz2oC0W86CX+u282kryOnO68IPF9PMI7Dr1y1Ia8xK0pvCoWfLzOSFe8uL3pu3xSobzwgjO7LTobPb3rjLz+ivK8wFyJvOBqZLs3LuG8IEUnO8tGBT18EII82nIOvZVVGT35Lx69UPYwu3pbz7xJRgQ9Fmm8PIDanjsZ4Kq8fXIxPfKKLL0eZQ+9J7AcPUjbprwQArU7+IsOPICXfLpjzSS9wAKGOjCGbDsg+bS6jS8iPcDrgruawBi9AGNsPBrKvzwKRqk8sNxnuyRksbw63+w8wB1KOztsHz3W0Ie8vWYdvSCDK702nuc8M00jPQghTjw0Y4s8Hv6qvMKeerxKXeC873iHvCcTCj0t+gW9or75PLOlLz3uL9I8MHpLvFgcu7sYG+G7eHizO4QnBry6RWq8Cib7vABJ9bpwhi29oH6nutNxAb22UeE86SUyvaov/TyACLa5ZtiVvK4E8zy1VJS8q7YwPbJ6ljzpDBo9kJz5vF7z0zxgS9G6IDksvfJ39jyCJOu8eAbWuzlIEz2wV707ODezuwDWFLvwqpY7vIBsvPaX8zwhqR696qOePGdkJz0EuQY8qL59PKQdYrzkj0S8OBHCO0BtAbsEfSo8A4eHvNuc47wAAEQ4EtyqPN0YK701TyG9EHKGO8giSjwYBci7MoX+vEoquTxiNec80gwdvTdA37xqIH481v3tvAjUHL1XLbS8+Wg2vcimFb2FLEu81/bhOw5jFbwHOkq9thDSPGM0fb0pPaC8EhCKvK5a9bpeW3S9bSLivKuRWrp0MXu9adnROvX3Ub0Rq1u93n8IvZsdfDx/nHC9jjQvvYm0/Lz+N4G8L+ZVvcS0azwpZJm8t5Y9vcWruzz7Vws8hhjSuzqqN7085Ku8BU23PGg5CL0ABFQ891MPu7Jo1Lz2gha6tMANvSlzpzz1ntQ87XgbPMbgczwrG7w7tAqxPCWI0bsHV2e9QfMUvL0ATb1Qv7I82ARxuuTQP70bYSG9mKXOu7vWv7ybYj28GDjSO9n4EL2S4Me831X9vFwmbL2XuVW9qaJBPMrYzjzHrco8X63oO9dN97wmj9Q8cGSDPMCzGLyohEm9igfGPMK0C71o0g+9QP47O9c4Lz2+t6g8MJhqvC3lwjyQmdu78hALPc4ctjwFn0y9gfgBPdvkTr0Ue3w8Bkv8uqArNL2ZXQ89Uht/vFrOnbzpT+E7Q+kYvQipLL399uW8JIS+vCu/kTx1m9C824O4PK8wbLwx41O9r1zjvFYjeL2/OgW9K3j8vGrTYr2yThe97a1XvUH5GDy996876FCRPK8iuTukwCk9zGhhvTeDV72aEZI85tLivG8xwbzWhVS9s0eOOxIF6LxtyRi9Pk4lvW1/Gb1AQd88FbGpPBhpEb26RLQ7jqx1vPoSvDxh63C86LKUO82a9ryt+YI7qEIMO9as3rz/ukS9Y/NovWbUwjwMvn+8dw+avAlhcr3xLhu9LlzLvLg+U72RYBy9eHanvIDTvTzboIa8pB5pvA1UtbqlKhO9rQFWvQ1BeL0aoEA7KjWUOa+yNbx9hDK86JDPPPz4VDqoF029k7CuvB8627zMAXq9iwxPvWYFyDyvBjm9LRmgPH/PHr0etdW8m6RUvb3HgDwo/uu7lJuXvOhLujyMhi69iF9gvHs5Lb3m/pW8kGDhvD+lU7xFcZ27kjgRPISwW7uC6oM5pGilPHbPp7ymQda7cbdFvEZALb1Oxpy8K/XsvKgACL3RvG+9iBaDPMx5ab3SBna7AZXNvCCFYzz5+Fw8qhJ4PJQ1bL0WoL47sGn8O6dXpjp7DxW9BRVQved3lbziM188mEJbPEzdJ71PcsC8hGNCvT7xDL3OufC8dopZveqwCL3Ka32921KnOT1z17yyoI48wLfGOsD/Y7zwqXe7FHYyvEDjkTsZSiQ9gAbLOjJrgrxyXrg8punZPA0MFD1l7Im8ThPmPDD4bzsqaXA86GMwvae4xzxrWMg8qVtIvBqJ67yIyjg8vgt8vZ0YUL2V1Fo6ZIG3vDZu7jwnkCe8XohMvMnUybwhR6q8HhGrO0isar2TZ408z6DUu18r1Lv8jwU8C+HLvEhvvzw36pO8vzO7Okb4a71LVAG91x0OOxioLbtwBdm8GTgGPAliCr1gP7c83qmmvFvs9zto25m8LLl9vAYrOrvOmik8X80JvSjdU72SJZW7sKcIvJwWR70rgVC8giRfvYrc8DvsP1Q8nDMGvAKTjTxARsc8FV3KPEO9Ir2IC4W8lJkEveBH/zuCbrY8gK53ut9lsLxBNrM84S3yvMaAmTywI4888Gc6vTaCUDzaTl+8TlA3uxqZyDwsOUG92C9yvfqZG70vo8C8Dx83vaB2oDwEChK9ckXVu++lHr3FEhy9I5/kvLGV97wlFh29Cx6XPJl4jrxw59K6xeWCvM2cibzwtS69zUTGO1JAnTzBWse8saWCvPvcNzwKG3q90KgVvaTedb3bDOO8trYmvZGtkzwmsAi9z4dAvfQvsjz9FRy9BDCPPCMniTwG0iO9V6a+vLo1kDxVANY8dWlFvbJsGL2IQoC8sbKFvKzfWb2NuXQ9AxIdvNYfgzxBp3Q9YxuCvMXPJDu2BgQ8X8EBvahrUL1Sqtc73Ch6PWSTVb3Ol4u72YSSPPJ+CztiD0G9DicZPDTa/LuTLRe7TrjUPAMkKz0WK4u8sHqdPH+s6jumQG+9d+Diu+jcQz017ZC8DipAPbU5KL0oBHK8uh8NvR8e47vlpnG9S4ALPNiOu7xEHsg8Z3wYvKyDsLtrx1q9g4EZvZSslTxl8Ci9p/MdvbgWx7xO6Xo81jj+u40xl7tArya82PAdvfxKpDwf7bc87eBVPGv7jbzzCd079I8JvbR0LTxskpe8cUGCPC/mbb1f0qe6rF78u2U9BTwnMAC8S6GTPOruF73EgFu9mpXwvC0KZ73kvzE8QQ5RvQKJ3LxeRZG8uMoCO9nSLL1l4W69uUimPF1oqbzdh0G9/TwHvWbTXr1DpY08jn8CvQu3tLwpLDW8UW7CvE17HTvWK5y8qKftvIHPHTxwXPe8Y9WuOk9sO70yzVu98mzRPEQoN71aSym9hCqivNb0WL0RmC+9ALGhPAkcaL2EmW28h7ZTPMhA0rsiGCc8ka4EvW/d5jsNWUK9qG7/u/UcLj3mf5S8kWt9vK5QYj28OSG90BACvdrS+zxISLq8itP4vIgWT7yJ+S89UPQsvAHXLjzr/TK9hkphvX+MzTzP/Wi9zXc/vOM+1jx9jTs88ffRvPDGsTxaNCa9ozV3PD0UUb1Zwia9kl9LvQBHOT35QLC84yr/O3khpLxRAE49nBmFPOADrDoVfjE861aOO4FE07xnCkK9JTu7vDUavrxLli69SmaSuo0wHr0OUWK8t6TSvIFGRzs2AW69z75fvARUUL2iP1O8GcPlO+EDCLw7zSi9nqmpPHursrws9Ri9dFHlu8v/trvOiN87kX1avYH23zoAswW9KvOTO46SSDyU86Y8SZUPvTzZoLxDahG9pQBGvD9/RDycIqa8UFBIvVV3KL2RTgk8ax+wPJ7zcL0QY2+9dUQlO7aIsbxdQ8G7FV0ePfmRd7x9VpS8w07iOwLp5zxLodq8mwRyvbAka71Jeoe71OhHvZckeL1l2YU7p5xEvQ5AhLwyF3u98GyUPMfNCb08Y5S4mJ5wu9Y8crzk+pC7/rSavC7XaL24gz+9gTA/PIvgRb2RvKK8beE0vY4wAbzMhcs87uEBvYFLtTw4vim9EIPQO/yYZjy36KM839WbPFGbnrzulPa8fIXmu1TVGrwLsjO9WPsPvcujR700GZW8QluvPDNCnzx1xkC9Bvu/vPJH+zwAKbW7RcneO1ZEpzyhvsC8K1kePVmvLL0fFQ09gkRoPA5yHb27Za48gW4JPWDBGjyiSNM7MEcsval3G70ZO1i8yrLSPF9Si7tiz0o8KPksuxJe4rxYyBy9CIN7vetSLb3zLjS9sDlmvdi6jLyW+2S9nDSlvKuHk7tlxbC7VfxsveCx3bxjhOa7mzslvY9xYT2hDBO8BVY4vbcGmjzB65C8rLirvPsHD7ySWrq8MskcPHE+RL0Obbm8SxxJvSjqlbweEkA8UggtvGT/WL3WJMU8tLPnvIYR5LxB+5y8AjaOu1WidbzR0pK7gVlBvfYnAbxkY1S9jrYyvSG3srs3Lsq885V9vGfLobwBwl29tWrxvFvhkjx8MJY823eZvD1FMTz6mJM8tbPFvPV+MrwdSgi8ccUQvTy7zbyuCIW8u7AavQKS7rzYKQ48h//PPD0q+bwD+Fu9nxTVvPmsnzzLHEm9dKtIvSFG2rmNLIm8hpiqvJ9PUjx+8yQ8dMolvEVMXDzGYbE8EMZZvXwm/7zIXby7ajO3PPIUnbxOY3y9y8haPG66W70BITu9r6HIuo1vkTxKHZ68xfx1vcFREL218pU8Ld4hu28ca72gEmK82GMcvQ0Xn7yVymW9+lW2PDuyH70eW4y8zeOuu5cgN71wzV29nAcAvatHxTwjJKI8/iHdO7rzYLz6I9Q8Sf0sPKPLkLyBjQu8FK9uu9klJjyhC8w7Rq4LvS34vDwYHAA62K5TvVCzRzxx4Ey9+d3jPOz6LzxFEBO9+b0mPQD44bcYhHG80uOfPE3KhLx8yo28IR4EPf90Bz1oJRg8GlzgPN0vJr2FgrC8AuHIPNufsLsqsES9XfjJPEK2L7vRey09QPXrOzR7Krz3BSI8AfKLvItvhDyQvyS8de0TPMb6xTxzO0k8FhK1vI+F7Lv4TQK84xqpu0uNPb3s+8Y8gULeOyWvnruFw2c8UbpYPIHb07z9SLW8gSicvFfSvDjneUm9pDJpvTe9azwyeXi9cs2nvHB6AThHmTO9AMUnvHaipLsL0mK86fxWvaa2RL1/NzO9PYpkvd7XfTzXUEq7f+4+vIS9jbzkJ9W7Gbu5vC/DNL2rUJe8Kye2vNSWUjzI8JQ8sLi3O4Mw+btdmZa8tZgUvXJoerzYPOy8gx64vFedGD0MKJ08f3IoPSFejrwZF2Q8rxnwvMGmaDpvBrO8gBoEvQEOvbtxL6s8AHvzvClTN7wfTIo8OsPhu89w5zu04ge9Ho/MPOxNdbzsSAu9fMSAPFrvXr3Q13k82CDdvLwRqTvj07q86fB4PIvbqLt+gVi8xnc/vfSC2Ly7hxE771L6u9LTG7y0BFa9n1LuvO2dFr2yQ/u8sxQAvLXz6rvnIiG8NWysvM3NsjxTM7W8zJoVPEX64rzjzk+9SLFrvEHscr2bNky8eyfEPFZTd70vj1o8rbqyuxkrUz1rn8o8EVzGPKhMa7zMGQo8vevOvGu/nTs6NEG978Q5vf5Worw+ldQ8IF1DvSwAgrzeEAi9GJauPDn/MTzhpyy8RPqeO1G+0DzMRDI9+anBvGLBMTwDGQw9nfadPD5REDu8y5a89i2mO2vbjjztlck8O7VAvJWtY7zwG9I8BUp1vKSUbbw9cw